<unk>	0
<s>	0
</s>	0
<pad>	0
▁t	-0
ng	-1
▁c	-2
▁đ	-3
▁n	-4
▁l	-5
▁th	-6
▁v	-7
▁m	-8
▁ch	-9
▁b	-10
▁h	-11
▁k	-12
▁nh	-13
▁s	-14
▁là	-15
nh	-16
ôi	-17
▁kh	-18
▁tr	-19
▁g	-20
▁ng	-21
ông	-22
▁tôi	-23
ột	-24
▁r	-25
úng	-26
▁p	-27
▁ph	-28
▁có	-29
ác	-30
▁d	-31
▁một	-32
▁T	-33
▁gi	-34
▁V	-35
ên	-36
▁C	-37
▁và	-38
iệ	-39
▁không	-40
ời	-41
ạn	-42
▁nà	-43
iế	-44
▁N	-45
ất	-46
ều	-47
▁ta	-48
ới	-49
▁chúng	-50
▁nó	-51
ủa	-52
▁của	-53
ững	-54
iều	-55
▁đó	-56
ây	-57
▁Và	-58
ượ	-59
qu	-60
▁qu	-61
▁những	-62
▁này	-63
▁bạn	-64
▁các	-65
▁x	-66
ười	-67
ại	-68
▁Đ	-69
ong	-70
▁đã	-71
▁ngh	-72
▁người	-73
ược	-74
▁thể	-75
uy	-76
ấy	-77
▁được	-78
▁Ch	-79
▁làm	-80
ải	-81
▁Tôi	-82
ình	-83
▁trong	-84
an	-85
ay	-86
▁B	-87
ần	-88
▁như	-89
▁ra	-90
▁họ	-91
▁sẽ	-92
▁cho	-93
▁với	-94
▁sự	-95
▁ở	-96
▁điều	-97
uố	-98
ái	-99
ang	-100
▁Nh	-101
▁"	-102
▁thế	-103
ực	-104
▁H	-105
iết	-106
iên	-107
▁về	-108
ật	-109
▁cả	-110
ao	-111
▁M	-112
▁phải	-113
▁Chúng	-114
on	-115
ơn	-116
▁gì	-117
iể	-118
▁nói	-119
ầu	-120
▁1	-121
anh	-122
ậy	-123
▁mà	-124
▁để	-125
ch	-126
ân	-127
ướ	-128
ai	-129
ến	-130
▁đây	-131
ằng	-132
▁số	-133
oà	-134
ết	-135
▁từ	-136
▁rất	-137
âu	-138
▁lại	-139
ành	-140
iện	-141
▁nghĩ	-142
▁đến	-143
▁đang	-144
▁thứ	-145
inh	-146
▁nă	-147
▁Như	-148
ính	-149
▁thấy	-150
iệc	-151
ước	-152
au	-153
in	-154
▁vào	-155
▁nhiều	-156
ườ	-157
▁việc	-158
▁Nhưng	-159
ường	-160
▁nào	-161
▁K	-162
▁biết	-163
ản	-164
ọi	-165
▁hơn	-166
▁Th	-167
▁cái	-168
▁khác	-169
ùng	-170
uốn	-171
▁đầu	-172
uyệ	-173
▁độ	-174
▁khi	-175
▁con	-176
▁thực	-177
ũng	-178
▁cách	-179
ận	-180
ổi	-181
ươ	-182
▁chỉ	-183
▁đi	-184
ương	-185
ối	-186
iến	-187
▁S	-188
▁ho	-189
▁muốn	-190
▁cũng	-191
ức	-192
▁học	-193
ạo	-194
▁Nó	-195
▁năm	-196
▁vậy	-197
ền	-198
▁Đây	-199
▁rằng	-200
iệu	-201
ắt	-202
▁A	-203
àng	-204
▁trên	-205
▁L	-206
ống	-207
oàn	-208
ơi	-209
ồi	-210
ung	-211
▁công	-212
eo	-213
▁giờ	-214
ích	-215
em	-216
át	-217
ữa	-218
▁dụ	-219
▁thành	-220
òn	-221
úc	-222
ếu	-223
áng	-224
▁nên	-225
ấn	-226
▁Kh	-227
▁Bạn	-228
▁vì	-229
▁bị	-230
▁Đó	-231
▁sao	-232
▁cần	-233
ộc	-234
uyện	-235
án	-236
ăn	-237
▁kho	-238
▁nhà	-239
ãy	-240
▁quan	-241
▁G	-242
ày	-243
▁thì	-244
."	-245
▁2	-246
ỏi	-247
ập	-248
uộc	-249
êu	-250
▁nhất	-251
▁ấy	-252
▁mình	-253
ưa	-254
▁lớ	-255
▁tố	-256
ắc	-257
ài	-258
▁chính	-259
▁đề	-260
00	-261
▁Tr	-262
ưở	-263
er	-264
▁động	-265
ưởng	-266
ặt	-267
▁thật	-268
▁anh	-269
▁tạo	-270
▁tiế	-271
▁giới	-272
▁còn	-273
▁mọi	-274
▁hiện	-275
ôn	-276
am	-277
ìn	-278
en	-279
▁ông	-280
▁P	-281
▁sống	-282
ứng	-283
▁câu	-284
▁chuyện	-285
▁tự	-286
▁hình	-287
▁tại	-288
ẫn	-289
iểu	-290
▁lên	-291
▁theo	-292
ánh	-293
iểm	-294
▁ti	-295
▁bắt	-296
âm	-297
▁lớn	-298
ởi	-299
ọng	-300
▁Vậy	-301
▁quy	-302
▁D	-303
▁nhìn	-304
▁thu	-305
ội	-306
ượng	-307
▁tới	-308
ar	-309
▁nhận	-310
▁Có	-311
▁nhiên	-312
▁Họ	-313
▁tin	-314
ảng	-315
▁Ng	-316
▁đị	-317
▁trở	-318
▁ý	-319
òng	-320
áo	-321
▁nữa	-322
▁hỏi	-323
▁cùng	-324
▁R	-325
▁tất	-326
▁vấn	-327
▁cuộc	-328
▁đổi	-329
▁sau	-330
▁ngày	-331
▁tốt	-332
ỗi	-333
ảnh	-334
▁Một	-335
út	-336
▁Vì	-337
▁bằng	-338
ảo	-339
iển	-340
▁bộ	-341
▁đồ	-342
▁cảm	-343
▁nhưng	-344
áy	-345
▁rồi	-346
▁bản	-347
▁toàn	-348
▁lo	-349
▁thời	-350
▁thay	-351
iệt	-352
ia	-353
▁tế	-354
▁nước	-355
ảy	-356
▁lu	-357
▁mới	-358
▁do	-359
▁y	-360
▁dụng	-361
ách	-362
▁cơ	-363
ấu	-364
▁trước	-365
iệm	-366
àn	-367
ạt	-368
▁—	-369
ăng	-370
ục	-371
▁cứ	-372
▁sinh	-373
▁phần	-374
▁thích	-375
▁xem	-376
▁tu	-377
▁định	-378
▁đều	-379
▁hai	-380
▁nhau	-381
▁sử	-382
ìm	-383
▁gia	-384
iễ	-385
▁qua	-386
▁dự	-387
▁ảnh	-388
▁tính	-389
ạc	-390
ạng	-391
▁máy	-392
▁trình	-393
▁hay	-394
▁nhân	-395
ặc	-396
▁nay	-397
▁chiế	-398
▁nếu	-399
ạnh	-400
ắn	-401
▁trường	-402
ào	-403
▁tìm	-404
oài	-405
▁kết	-406
▁Những	-407
▁tưởng	-408
▁hệ	-409
▁vị	-410
▁tiếp	-411
▁lý	-412
áp	-413
▁gọi	-414
▁cô	-415
▁lần	-416
▁3	-417
▁phát	-418
▁Không	-419
▁thông	-420
▁chuy	-421
▁Điều	-422
▁vài	-423
im	-424
▁ai	-425
▁năng	-426
▁vật	-427
▁nơi	-428
▁hàng	-429
ừng	-430
▁trọng	-431
▁thiết	-432
▁giống	-433
▁trẻ	-434
ồn	-435
▁Các	-436
▁tiên	-437
▁đo	-438
▁bao	-439
ấp	-440
▁quá	-441
iễn	-442
▁gian	-443
ắng	-444
▁hãy	-445
▁bởi	-446
▁kinh	-447
▁hội	-448
▁vẫn	-449
▁giải	-450
uyệt	-451
▁Anh	-452
▁hành	-453
▁Ph	-454
▁hoá	-455
▁hoàn	-456
▁xảy	-457
ợp	-458
▁nghĩa	-459
êm	-460
▁Hãy	-461
▁khó	-462
▁điểm	-463
▁mặt	-464
▁Gi	-465
▁nhỏ	-466
▁thức	-467
▁thường	-468
ẳng	-469
▁hợp	-470
ệnh	-471
▁đúng	-472
ển	-473
▁nghe	-474
ảm	-475
ốc	-476
▁tuyệt	-477
?"	-478
▁lời	-479
▁Q	-480
▁chiếc	-481
▁sáng	-482
▁liệu	-483
▁tương	-484
▁dùng	-485
or	-486
▁J	-487
▁chưa	-488
▁lúc	-489
▁đối	-490
▁quả	-491
ám	-492
▁loại	-493
ọn	-494
al	-495
▁trả	-496
..	-497
ịch	-498
▁tâm	-499
▁xu	-500
▁tác	-501
▁hiểu	-502
▁từng	-503
▁đâu	-504
▁đường	-505
▁lượng	-506
es	-507
ợi	-508
uối	-509
▁hết	-510
▁bệnh	-511
ăm	-512
el	-513
▁viên	-514
▁quyết	-515
▁ăn	-516
▁khoảng	-517
▁Nếu	-518
▁đồng	-519
▁thống	-520
▁Thế	-521
▁diễn	-522
óng	-523
▁bất	-524
▁tuổi	-525
▁cao	-526
▁cứu	-527
uyên	-528
▁biệt	-529
ạy	-530
▁thuật	-531
▁nghệ	-532
▁em	-533
▁kế	-534
▁bảo	-535
▁đấy	-536
▁bỏ	-537
is	-538
ậu	-539
uống	-540
▁bên	-541
▁chuyển	-542
▁nghiệm	-543
ẩn	-544
ặp	-545
ứa	-546
ộng	-547
▁xe	-548
▁cố	-549
▁E	-550
▁Khi	-551
▁cầu	-552
▁phí	-553
ẩm	-554
▁đưa	-555
▁ơn	-556
▁tượng	-557
et	-558
▁tình	-559
▁vi	-560
▁mỗi	-561
▁tay	-562
▁đặt	-563
ét	-564
ắp	-565
ửa	-566
▁tiếng	-567
▁đại	-568
▁tiền	-569
▁xuất	-570
ướng	-571
úp	-572
ấm	-573
uốc	-574
uyền	-575
ầm	-576
▁phụ	-577
▁phòng	-578
▁bình	-579
ão	-580
▁sách	-581
ẫu	-582
▁bé	-583
▁yêu	-584
▁đơn	-585
▁chút	-586
▁Ô	-587
▁5	-588
▁trung	-589
ép	-590
▁nữ	-591
▁mang	-592
▁Bây	-593
▁giá	-594
▁tranh	-595
ưới	-596
▁dân	-597
▁chơi	-598
at	-599
▁thú	-600
▁tên	-601
ic	-602
▁bài	-603
▁chủ	-604
▁tho	-605
âng	-606
▁Trong	-607
▁ngay	-608
▁Người	-609
óc	-610
▁gh	-611
▁mất	-612
▁tiến	-613
▁đáng	-614
il	-615
▁to	-616
▁biến	-617
▁luôn	-618
ẹp	-619
ạch	-620
▁triển	-621
▁I	-622
▁phẩm	-623
▁điện	-624
àm	-625
▁4	-626
ôm	-627
ắm	-628
iêu	-629
▁lực	-630
▁đất	-631
▁giáo	-632
▁khu	-633
▁Ông	-634
▁chiến	-635
▁tổ	-636
▁giúp	-637
▁Mỹ	-638
▁bức	-639
▁khá	-640
▁quay	-641
▁cuối	-642
▁màu	-643
▁thử	-644
▁tập	-645
iệp	-646
▁ba	-647
▁vời	-648
▁thị	-649
▁pháp	-650
▁chí	-651
▁đời	-652
▁trị	-653
uồn	-654
▁chất	-655
▁bây	-656
▁lấy	-657
▁não	-658
▁phân	-659
ol	-660
▁O	-661
▁chết	-662
▁sức	-663
▁khoa	-664
▁minh	-665
ua	-666
uyết	-667
ít	-668
▁kỳ	-669
▁giản	-670
▁thân	-671
▁W	-672
▁loài	-673
▁truyền	-674
as	-675
▁lẽ	-676
▁âm	-677
▁gặp	-678
▁chứng	-679
▁X	-680
▁gần	-681
▁phương	-682
le	-683
ừa	-684
000	-685
▁vô	-686
▁phố	-687
▁nhạc	-688
▁chọn	-689
▁hiệu	-690
ọc	-691
▁bà	-692
▁cá	-693
▁đẹp	-694
ạm	-695
▁xã	-696
▁Tại	-697
▁Tất	-698
▁xuống	-699
ậm	-700
▁tiêu	-701
▁F	-702
▁sản	-703
▁dẫn	-704
▁hoạt	-705
it	-706
▁kể	-707
▁giữa	-708
▁mạnh	-709
ot	-710
▁giả	-711
▁trí	-712
▁bay	-713
▁hướng	-714
▁đạo	-715
▁lập	-716
▁mẹ	-717
▁đứa	-718
▁ngoài	-719
ầy	-720
▁10	-721
▁tăng	-722
▁nhanh	-723
▁19	-724
▁án	-725
▁ít	-726
▁thêm	-727
▁triệu	-728
▁chu	-729
▁chẳng	-730
▁so	-731
▁ứng	-732
▁phim	-733
▁bố	-734
▁khả	-735
▁liên	-736
▁mạng	-737
▁đoạn	-738
▁đánh	-739
▁mô	-740
▁vu	-741
▁tài	-742
▁hôm	-743
▁ngữ	-744
▁tinh	-745
▁viết	-746
iếm	-747
▁rõ	-748
áu	-749
ềm	-750
▁ví	-751
▁Làm	-752
▁xây	-753
▁quốc	-754
óm	-755
ồng	-756
▁mở	-757
▁nghiên	-758
▁cụ	-759
▁tháng	-760
▁%	-761
▁Vâng	-762
▁kiến	-763
ãi	-764
▁Bởi	-765
▁suy	-766
▁cảnh	-767
▁-	-768
▁nhớ	-769
▁hộ	-770
▁nền	-771
▁dựng	-772
▁thần	-773
ur	-774
▁dưới	-775
▁phía	-776
▁tử	-777
▁Sau	-778
▁khí	-779
▁phá	-780
▁thôi	-781
▁văn	-782
▁giác	-783
▁Ho	-784
▁lệ	-785
▁đủ	-786
▁chú	-787
▁trông	-788
▁dễ	-789
▁kì	-790
▁nguyên	-791
iê	-792
and	-793
▁20	-794
▁di	-795
▁chế	-796
▁trò	-797
▁sợ	-798
▁đàn	-799
▁hoặc	-800
▁sĩ	-801
▁quyền	-802
ủng	-803
▁đô	-804
▁khỏi	-805
ter	-806
▁cực	-807
▁kia	-808
▁vụ	-809
iêng	-810
▁duy	-811
▁đôi	-812
▁Quốc	-813
▁lợi	-814
▁biểu	-815
▁kiểm	-816
▁trang	-817
ạp	-818
▁vũ	-819
▁dài	-820
▁tham	-821
▁dữ	-822
▁dạy	-823
▁Thực	-824
▁dạng	-825
▁khiến	-826
▁quanh	-827
▁Qu	-828
▁tư	-829
▁Giờ	-830
▁bào	-831
▁vọng	-832
".	-833
▁lã	-834
▁Cái	-835
▁chị	-836
▁phép	-837
▁thuyết	-838
oo	-839
ra	-840
▁Ở	-841
▁xác	-842
▁chắc	-843
▁đứng	-844
▁hưởng	-845
▁xa	-846
▁Nên	-847
▁chân	-848
▁bu	-849
▁dục	-850
▁vui	-851
▁chia	-852
▁nghiệp	-853
ựa	-854
▁sai	-855
▁gắng	-856
▁7	-857
▁báo	-858
▁Trung	-859
àu	-860
▁tối	-861
▁đặc	-862
▁trái	-863
▁nhiêu	-864
ad	-865
ụp	-866
▁Ý	-867
▁sát	-868
▁dịch	-869
▁phản	-870
▁thương	-871
om	-872
us	-873
▁hề	-874
▁tục	-875
▁càng	-876
▁9	-877
▁mức	-878
▁đoán	-879
os	-880
▁Sự	-881
▁lai	-882
Ch	-883
ưu	-884
▁mù	-885
▁cây	-886
▁cậu	-887
▁mẫu	-888
▁nguồn	-889
iếu	-890
▁bàn	-891
▁vực	-892
▁Thật	-893
li	-894
Tôi	-895
▁vẻ	-896
▁gây	-897
▁vòng	-898
▁thanh	-899
ặng	-900
▁chứ	-901
▁đầy	-902
▁cộng	-903
▁nhóm	-904
ac	-905
▁giảm	-906
▁trăm	-907
▁trời	-908
▁Cô	-909
▁tỉ	-910
▁mua	-911
▁bóng	-912
▁gái	-913
▁thư	-914
▁hoà	-915
▁ngo	-916
▁vừa	-917
ằm	-918
ốt	-919
▁sở	-920
▁cánh	-921
▁lịch	-922
▁thúc	-923
ob	-924
▁Cảm	-925
▁lâu	-926
▁luận	-927
▁phút	-928
▁thậm	-929
▁tiết	-930
▁bán	-931
▁chi	-932
▁nổi	-933
▁trụ	-934
▁kiếm	-935
ưỡ	-936
▁6	-937
▁ngôn	-938
▁ràng	-939
▁riêng	-940
▁Y	-941
uốt	-942
▁Mọi	-943
▁lớp	-944
▁xin	-945
▁luật	-946
▁trải	-947
▁biển	-948
▁chức	-949
▁cuốn	-950
▁giao	-951
▁ty	-952
▁mắt	-953
▁thí	-954
▁đình	-955
èo	-956
▁Để	-957
▁yếu	-958
▁chụp	-959
▁cửa	-960
▁diện	-961
▁khăn	-962
▁8	-963
▁căn	-964
▁bước	-965
▁chạy	-966
▁hiểm	-967
▁hạnh	-968
oi	-969
▁đọc	-970
▁cấp	-971
▁giữ	-972
▁nghi	-973
▁tuần	-974
▁dành	-975
▁lòng	-976
▁toán	-977
▁chung	-978
ah	-979
▁mục	-980
▁tích	-981
ưng	-982
▁sẻ	-983
▁chỗ	-984
ượt	-985
▁la	-986
▁Còn	-987
▁phúc	-988
...	-989
▁hơi	-990
▁nằm	-991
▁phủ	-992
▁rộng	-993
ew	-994
ỏng	-995
▁tấm	-996
▁vùng	-997
▁St	-998
▁môi	-999
▁tồn	-1000
▁ngồi	-1001
ED	-1002
eb	-1003
id	-1004
▁vẽ	-1005
▁vệ	-1006
▁Câu	-1007
▁hầu	-1008
▁nối	-1009
▁quý	-1010
▁sắc	-1011
▁suốt	-1012
▁200	-1013
▁Rồi	-1014
▁lắm	-1015
▁chắn	-1016
▁khoẻ	-1017
▁ngôi	-1018
▁phục	-1019
▁thuộc	-1020
▁Ấ	-1021
▁sâu	-1022
▁xét	-1023
▁cười	-1024
▁kiểu	-1025
▁thuốc	-1026
th	-1027
úa	-1028
▁Ấn	-1029
▁Con	-1030
▁Phi	-1031
▁Xin	-1032
▁hạn	-1033
▁hạt	-1034
▁khắp	-1035
ửi	-1036
ist	-1037
uôi	-1038
▁Do	-1039
▁xấu	-1040
▁xanh	-1041
▁doanh	-1042
▁trạng	-1043
éo	-1044
▁tỷ	-1045
▁TED	-1046
▁tạp	-1047
ro	-1048
▁thoại	-1049
ẵn	-1050
▁ổ	-1051
ing	-1052
▁kỷ	-1053
▁khám	-1054
▁phạm	-1055
▁trúc	-1056
úi	-1057
▁kiện	-1058
▁trực	-1059
▁nhiệt	-1060
ón	-1061
iền	-1062
▁kẻ	-1063
▁tệ	-1064
▁Độ	-1065
▁chữ	-1066
▁trợ	-1067
▁buổi	-1068
▁tra	-1069
▁Liệu	-1070
▁ngạc	-1071
▁nhập	-1072
▁xung	-1073
▁thiếu	-1074
ey	-1075
iếp	-1076
ĩnh	-1077
▁lựa	-1078
▁sẵn	-1079
▁ánh	-1080
▁ích	-1081
▁địa	-1082
▁bánh	-1083
▁trai	-1084
▁viện	-1085
▁dù	-1086
▁Cho	-1087
▁đau	-1088
▁lắng	-1089
▁khủng	-1090
▁lạ	-1091
▁100	-1092
▁ghi	-1093
▁ngủ	-1094
▁tội	-1095
▁độc	-1096
ig	-1097
un	-1098
iềm	-1099
▁kỹ	-1100
▁ẩn	-1101
▁Chỉ	-1102
▁Với	-1103
▁khổ	-1104
▁vận	-1105
▁khắc	-1106
ốn	-1107
▁Ai	-1108
ưỡng	-1109
▁cấu	-1110
▁gửi	-1111
▁xúc	-1112
▁đạt	-1113
▁đội	-1114
▁nguy	-1115
▁nhiệm	-1116
ữu	-1117
▁mã	-1118
▁hoạ	-1119
▁sắp	-1120
▁chịu	-1121
▁cạnh	-1122
▁lãnh	-1123
▁thái	-1124
▁thất	-1125
▁chương	-1126
▁Ta	-1127
▁Rất	-1128
▁dầu	-1129
▁hữu	-1130
▁mối	-1131
▁dung	-1132
▁giết	-1133
0.	-1134
la	-1135
▁15	-1136
▁Mar	-1137
▁Ngh	-1138
▁dây	-1139
▁tái	-1140
▁giấy	-1141
▁phức	-1142
▁chống	-1143
▁nghèo	-1144
op	-1145
ẩy	-1146
net	-1147
▁In	-1148
▁an	-1149
▁sư	-1150
▁nội	-1151
▁nửa	-1152
▁ước	-1153
▁vượt	-1154
ếp	-1155
▁hồ	-1156
hông	-1157
▁bác	-1158
▁lỗi	-1159
▁kính	-1160
▁chuẩn	-1161
ran	-1162
▁hu	-1163
▁màn	-1164
▁nhé	-1165
▁tức	-1166
▁nuôi	-1167
▁chiếu	-1168
▁trưởng	-1169
▁U	-1170
▁đa	-1171
▁cha	-1172
▁thi	-1173
▁thủ	-1174
▁mong	-1175
▁dương	-1176
▁ngược	-1177
▁thiên	-1178
av	-1179
ịp	-1180
▁Al	-1181
▁Bà	-1182
▁Thứ	-1183
▁dấu	-1184
▁hát	-1185
▁lạc	-1186
▁mật	-1187
▁tim	-1188
▁đen	-1189
▁Ngày	-1190
▁dừng	-1191
▁kích	-1192
▁thập	-1193
▁Tuy	-1194
▁cắt	-1195
▁băng	-1196
▁hoạch	-1197
ed	-1198
▁'	-1199
▁mơ	-1200
▁Mỗi	-1201
▁hồi	-1202
▁sân	-1203
▁cung	-1204
▁niệm	-1205
▁tổng	-1206
▁Trước	-1207
▁/	-1208
▁ô	-1209
ard	-1210
han	-1211
▁lộ	-1212
▁bại	-1213
▁lái	-1214
▁toà	-1215
▁tắc	-1216
▁đấu	-1217
▁Hiện	-1218
▁niềm	-1219
▁Đúng	-1220
▁đóng	-1221
ỉnh	-1222
▁12	-1223
▁xo	-1224
▁New	-1225
▁Tây	-1226
▁tầm	-1227
▁ung	-1228
▁hứng	-1229
▁khởi	-1230
▁phẫu	-1231
ẩu	-1232
deo	-1233
▁18	-1234
▁cổ	-1235
▁da	-1236
▁Vấn	-1237
▁thơ	-1238
▁danh	-1239
▁soát	-1240
▁ngành	-1241
▁video	-1242
ik	-1243
lo	-1244
▁áp	-1245
▁bày	-1246
▁cải	-1247
▁kéo	-1248
▁tàu	-1249
▁Châu	-1250
▁châu	-1251
▁bí	-1252
▁lí	-1253
▁may	-1254
▁buồn	-1255
▁nhiễ	-1256
▁đừng	-1257
▁ngoại	-1258
st	-1259
èn	-1260
▁30	-1261
▁Jo	-1262
▁tí	-1263
▁đỏ	-1264
iếng	-1265
▁Công	-1266
▁thấp	-1267
▁khách	-1268
▁thắng	-1269
▁thẳng	-1270
▁chuyên	-1271
re	-1272
▁50	-1273
▁ảo	-1274
uyến	-1275
▁Hai	-1276
▁ban	-1277
▁dần	-1278
▁mắc	-1279
▁đột	-1280
▁chim	-1281
▁giây	-1282
▁khối	-1283
▁nhảy	-1284
▁quản	-1285
▁sàng	-1286
ternet	-1287
▁Chính	-1288
▁luyện	-1289
Th	-1290
õi	-1291
▁ổn	-1292
,000	-1293
▁hoa	-1294
▁đức	-1295
▁chàng	-1296
▁phóng	-1297
▁thiện	-1298
▁cân	-1299
▁mấy	-1300
▁ngờ	-1301
▁thách	-1302
ie	-1303
son	-1304
▁Từ	-1305
▁hy	-1306
▁kê	-1307
▁đá	-1308
▁Năm	-1309
▁hại	-1310
▁lưu	-1311
▁đợi	-1312
▁chữa	-1313
▁dàng	-1314
▁ngân	-1315
▁chiều	-1316
▁nhiễm	-1317
▁thiệu	-1318
▁Internet	-1319
▁w	-1320
▁su	-1321
▁tù	-1322
▁xử	-1323
▁Hay	-1324
▁bốn	-1325
▁mùa	-1326
▁nhu	-1327
▁nỗi	-1328
▁đêm	-1329
▁lĩnh	-1330
▁chuyến	-1331
ẳn	-1332
▁mặc	-1333
▁phi	-1334
▁cháu	-1335
▁chấp	-1336
▁ngắn	-1337
▁Được	-1338
ap	-1339
ill	-1340
▁cử	-1341
▁hạ	-1342
obot	-1343
▁Goo	-1344
▁Lúc	-1345
▁già	-1346
▁hậu	-1347
▁nhờ	-1348
▁nạn	-1349
▁rối	-1350
Không	-1351
▁Chúa	-1352
▁chăm	-1353
▁quân	-1354
▁uống	-1355
▁đích	-1356
io	-1357
▁Â	-1358
▁ca	-1359
▁mê	-1360
▁lao	-1361
▁tận	-1362
▁tốc	-1363
▁đáp	-1364
▁đẩy	-1365
▁Việc	-1366
▁ngàn	-1367
▁điên	-1368
▁khiển	-1369
▁phong	-1370
▁tránh	-1371
▁trùng	-1372
▁xuyên	-1373
ud	-1374
ồm	-1375
gle	-1376
ton	-1377
▁Mà	-1378
▁in	-1379
▁đổ	-1380
▁Bắc	-1381
▁Nam	-1382
▁hài	-1383
▁trừ	-1384
▁vai	-1385
▁đem	-1386
▁nóng	-1387
▁sang	-1388
▁siêu	-1389
ak	-1390
oc	-1391
ow	-1392
ry	-1393
▁kĩ	-1394
▁mũ	-1395
▁đỡ	-1396
▁tồi	-1397
▁quen	-1398
▁sóng	-1399
▁trận	-1400
▁tảng	-1401
Nh	-1402
ab	-1403
▁11	-1404
▁Em	-1405
▁tả	-1406
▁Cậu	-1407
▁bạo	-1408
▁bầu	-1409
▁coi	-1410
▁dậy	-1411
▁dựa	-1412
▁ghế	-1413
▁gấp	-1414
▁hãi	-1415
▁hộp	-1416
▁phổ	-1417
▁lưới	-1418
▁nặng	-1419
▁tiện	-1420
▁điển	-1421
▁ngừng	-1422
ùa	-1423
ọt	-1424
ent	-1425
ine	-1426
▁cư	-1427
▁sơ	-1428
▁gió	-1429
▁hấp	-1430
▁món	-1431
▁rơi	-1432
▁tốn	-1433
▁đảm	-1434
▁đảo	-1435
istan	-1436
▁buộc	-1437
▁chào	-1438
▁khái	-1439
▁nghỉ	-1440
▁chuột	-1441
▁chỉnh	-1442
▁Google	-1443
ag	-1444
hn	-1445
òi	-1446
ầng	-1447
▁40	-1448
▁Br	-1449
.000	-1450
▁cập	-1451
▁hẳn	-1452
▁tôn	-1453
▁Đầu	-1454
▁diệu	-1455
▁khán	-1456
▁nghị	-1457
▁niên	-1458
▁đông	-1459
▁khuôn	-1460
▁thưởng	-1461
ib	-1462
ul	-1463
ói	-1464
▁Nói	-1465
▁cầm	-1466
▁gen	-1467
▁mái	-1468
▁sóc	-1469
▁tải	-1470
▁tổn	-1471
▁đèn	-1472
ót	-1473
▁hỗ	-1474
▁lồ	-1475
▁Thu	-1476
▁góc	-1477
▁gắn	-1478
▁hảo	-1479
▁mềm	-1480
▁ủng	-1481
▁nhịp	-1482
▁khổng	-1483
▁robot	-1484
▁đương	-1485
▁nghiêm	-1486
ph	-1487
ut	-1488
ẹn	-1489
▁à	-1490
▁Ồ	-1491
▁25	-1492
▁Hầu	-1493
▁chờ	-1494
▁gồm	-1495
▁nắm	-1496
▁Cuối	-1497
▁Cách	-1498
▁chấm	-1499
▁nhắc	-1500
▁tầng	-1501
▁điệu	-1502
▁quyển	-1503
▁trắng	-1504
▁tường	-1505
ly	-1506
ặn	-1507
ian	-1508
ich	-1509
▁Là	-1510
▁du	-1511
▁ký	-1512
▁lá	-1513
▁Bản	-1514
▁cận	-1515
▁mãi	-1516
▁thụ	-1517
▁túi	-1518
▁rừng	-1519
▁Đừng	-1520
▁trách	-1521
ìa	-1522
ộn	-1523
▁ạ	-1524
▁Ả	-1525
uổi	-1526
▁vỡ	-1527
▁áo	-1528
▁bật	-1529
▁cáo	-1530
▁dõi	-1531
▁lầm	-1532
▁lặp	-1533
▁liệt	-1534
▁tiểu	-1535
▁Nhiều	-1536
um	-1537
▁Sh	-1538
▁cũ	-1539
▁dĩ	-1540
▁hổ	-1541
▁Dav	-1542
▁Ken	-1543
▁Kho	-1544
▁hôn	-1545
▁môn	-1546
▁xếp	-1547
▁đói	-1548
▁Theo	-1549
▁bảng	-1550
▁hùng	-1551
▁làng	-1552
▁quần	-1553
▁giọng	-1554
az	-1555
ip	-1556
ub	-1557
ick	-1558
ord	-1559
▁An	-1560
▁Ví	-1561
▁ko	-1562
▁mu	-1563
▁Nào	-1564
▁gốc	-1565
▁hút	-1566
▁rời	-1567
▁tán	-1568
▁tắt	-1569
▁Cũng	-1570
▁John	-1571
▁Ngay	-1572
▁Trên	-1573
▁nông	-1574
▁quên	-1575
▁xoay	-1576
▁chủng	-1577
▁tuyến	-1578
!"	-1579
aw	-1580
ec	-1581
tr	-1582
ém	-1583
▁f	-1584
▁o	-1585
▁Về	-1586
▁Bao	-1587
▁bơi	-1588
▁cam	-1589
▁cơn	-1590
▁lửa	-1591
▁tai	-1592
▁web	-1593
▁Đối	-1594
▁giai	-1595
▁giàu	-1596
▁khai	-1597
ev	-1598
iếc	-1599
ork	-1600
▁Ar	-1601
▁Ok	-1602
▁kỉ	-1603
▁Âu	-1604
▁Hôm	-1605
▁hối	-1606
▁nam	-1607
▁phù	-1608
▁rút	-1609
▁Trái	-1610
▁York	-1611
▁dòng	-1612
▁linh	-1613
▁lặng	-1614
▁ngăn	-1615
co	-1616
ee	-1617
▁Á	-1618
one	-1619
ựng	-1620
▁núi	-1621
▁Cuộc	-1622
▁Hoặc	-1623
▁Phải	-1624
▁chạm	-1625
▁chứa	-1626
▁thoả	-1627
▁thịt	-1628
▁tách	-1629
▁vàng	-1630
▁Chẳng	-1631
▁hoảng	-1632
▁phỏng	-1633
▁trống	-1634
ff	-1635
arl	-1636
▁Ba	-1637
▁vĩ	-1638
▁Hoa	-1639
▁Vào	-1640
▁bữa	-1641
▁cát	-1642
▁dối	-1643
▁khứ	-1644
▁móc	-1645
▁mắn	-1646
▁sáu	-1647
▁tan	-1648
▁tín	-1649
▁tấn	-1650
▁voi	-1651
▁yên	-1652
▁Đôi	-1653
▁ống	-1654
Chúng	-1655
▁Thuỵ	-1656
▁chối	-1657
▁kiệm	-1658
▁miễn	-1659
▁mạch	-1660
▁phận	-1661
▁đỉnh	-1662
▁chóng	-1663
▁thoát	-1664
▁trích	-1665
",	-1666
ớm	-1667
man	-1668
▁Ad	-1669
▁Cả	-1670
▁Kỳ	-1671
▁bò	-1672
▁bụ	-1673
▁cỡ	-1674
▁tờ	-1675
▁chó	-1676
▁hào	-1677
▁mời	-1678
▁nhẹ	-1679
▁ong	-1680
▁phê	-1681
▁sợi	-1682
▁sửa	-1683
▁Đại	-1684
▁đám	-1685
▁mảnh	-1686
▁mừng	-1687
▁tròn	-1688
▁Đông	-1689
▁đăng	-1690
▁David	-1691
▁dường	-1692
▁dưỡng	-1693
de	-1694
óp	-1695
ấc	-1696
ớt	-1697
▁[	-1698
all	-1699
era	-1700
▁Sẽ	-1701
▁cà	-1702
▁ấn	-1703
▁côn	-1704
▁lối	-1705
▁máu	-1706
▁nhỉ	-1707
▁trì	-1708
▁tộc	-1709
▁vân	-1710
▁đào	-1711
▁đùa	-1712
▁Fran	-1713
▁kịch	-1714
▁loạt	-1715
▁lãng	-1716
▁sạch	-1717
▁tiềm	-1718
▁nghìn	-1719
▁trồng	-1720
rg	-1721
ĩa	-1722
ủi	-1723
▁u	-1724
art	-1725
ley	-1726
ris	-1727
▁13	-1728
▁Dù	-1729
▁Sao	-1730
▁hắn	-1731
▁lan	-1732
▁lẫn	-1733
▁mây	-1734
▁Nhật	-1735
▁hiển	-1736
▁khoá	-1737
▁loạn	-1738
▁nghề	-1739
▁nhắn	-1740
▁phấn	-1741
▁phối	-1742
▁song	-1743
▁thận	-1744
▁tàng	-1745
▁viễn	-1746
▁vong	-1747
▁khoản	-1748
▁lương	-1749
▁quảng	-1750
▁khoảnh	-1751
if	-1752
ứt	-1753
Bạn	-1754
Hãy	-1755
ack	-1756
ber	-1757
est	-1758
ườn	-1759
ưỡi	-1760
▁Bố	-1761
▁Mẹ	-1762
▁lỗ	-1763
▁mẽ	-1764
▁Tin	-1765
▁gợi	-1766
▁huỷ	-1767
▁Nhìn	-1768
▁biên	-1769
▁lạnh	-1770
▁vâng	-1771
▁Điển	-1772
0,	-1773
IV	-1774
eg	-1775
ex	-1776
ou	-1777
ãn	-1778
ớp	-1779
Anh	-1780
ans	-1781
ell	-1782
▁Dĩ	-1783
▁Lu	-1784
▁hè	-1785
▁vợ	-1786
▁HIV	-1787
▁Lần	-1788
▁góp	-1789
▁họp	-1790
▁kim	-1791
▁lục	-1792
▁mùi	-1793
▁thở	-1794
▁đam	-1795
▁Hình	-1796
▁Thay	-1797
▁Thời	-1798
▁chậm	-1799
▁ghép	-1800
▁giỏi	-1801
▁lược	-1802
▁ngẫu	-1803
▁sông	-1804
▁thải	-1805
▁đống	-1806
▁miếng	-1807
▁thước	-1808
▁triết	-1809
fg	-1810
ri	-1811
▁Z	-1812
ein	-1813
ore	-1814
▁14	-1815
▁tô	-1816
▁Afg	-1817
▁Mặt	-1818
▁bọn	-1819
▁sốt	-1820
▁tàn	-1821
▁Chắc	-1822
▁Tiếp	-1823
▁chán	-1824
▁chặt	-1825
▁nhật	-1826
▁trao	-1827
▁hoàng	-1828
▁ngoái	-1829
▁xương	-1830
▁Afghan	-1831
ya	-1832
én	-1833
ặm	-1834
ệt	-1835
▁$	-1836
ess	-1837
ook	-1838
ãng	-1839
▁dị	-1840
▁nổ	-1841
▁sỹ	-1842
▁Bra	-1843
▁Bức	-1844
▁Geo	-1845
▁bền	-1846
▁sót	-1847
▁sớm	-1848
▁thọ	-1849
▁đập	-1850
▁Nhân	-1851
▁bông	-1852
▁cứng	-1853
▁khẩu	-1854
▁thuỷ	-1855
▁thừa	-1856
▁điệp	-1857
▁đuổi	-1858
▁đằng	-1859
▁khích	-1860
hi	-1861
ne	-1862
od	-1863
ớn	-1864
att	-1865
ươi	-1866
▁%.	-1867
▁2,	-1868
▁Am	-1869
▁Is	-1870
▁hi	-1871
▁kí	-1872
▁ru	-1873
▁vú	-1874
....	-1875
▁mũi	-1876
▁mạo	-1877
▁rào	-1878
▁thờ	-1879
▁hiếm	-1880
▁khảo	-1881
▁liền	-1882
▁súng	-1883
▁vững	-1884
▁đẳng	-1885
▁Giống	-1886
▁chừng	-1887
▁vuông	-1888
▁Chuyện	-1889
Ng	-1890
ce	-1891
ti	-1892
▁ư	-1893
Tại	-1894
▁Bộ	-1895
▁Cứ	-1896
▁bi	-1897
▁bờ	-1898
▁ám	-1899
▁198	-1900
▁Cực	-1901
▁log	-1902
▁mét	-1903
▁quỹ	-1904
▁đắn	-1905
▁Phần	-1906
▁chảy	-1907
▁ghét	-1908
▁huấn	-1909
▁lính	-1910
▁đựng	-1911
▁Chiếc	-1912
▁thoải	-1913
iv	-1914
ric	-1915
▁Cơ	-1916
▁cu	-1917
▁im	-1918
▁ma	-1919
▁rẻ	-1920
▁tỏ	-1921
▁óc	-1922
▁Đã	-1923
▁Ban	-1924
▁Cal	-1925
▁Car	-1926
▁Har	-1927
▁San	-1928
▁Tên	-1929
▁can	-1930
▁cãi	-1931
▁gọn	-1932
▁lừa	-1933
▁mãn	-1934
▁nút	-1935
▁quí	-1936
▁rác	-1937
▁rắc	-1938
▁vết	-1939
▁Bill	-1940
▁Nghệ	-1941
▁khấu	-1942
▁lỏng	-1943
▁khuẩn	-1944
▁nhũng	-1945
▁phiền	-1946
▁quang	-1947
▁trưng	-1948
▁ngưỡng	-1949
▁Afghanistan	-1950
ck	-1951
ov	-1952
ùi	-1953
ash	-1954
bur	-1955
ướt	-1956
▁1,	-1957
▁16	-1958
▁bè	-1959
▁bề	-1960
▁mộ	-1961
iệng	-1962
▁199	-1963
▁Nhà	-1964
▁bột	-1965
▁cản	-1966
▁dặm	-1967
▁ngã	-1968
▁Đến	-1969
▁Đức	-1970
▁đạp	-1971
▁Liên	-1972
▁Pháp	-1973
▁Thái	-1974
▁Thậm	-1975
▁cháy	-1976
▁chép	-1977
▁chốt	-1978
▁giấc	-1979
▁kênh	-1980
▁ngọn	-1981
▁răng	-1982
▁suất	-1983
▁sánh	-1984
▁thăm	-1985
▁thảm	-1986
▁trại	-1987
▁đoàn	-1988
▁Georg	-1989
▁Kenya	-1990
▁chiếm	-1991
▁chồng	-1992
▁thạch	-1993
ếm	-1994
ath	-1995
enn	-1996
ers	-1997
ind	-1998
ith	-1999
orn	-2000
▁1.	-2001
▁17	-2002
▁80	-2003
▁Lý	-2004
▁Rõ	-2005
▁TV	-2006
▁cờ	-2007
▁nỗ	-2008
▁ơi	-2009
land	-2010
▁300	-2011
▁Bài	-2012
▁Gần	-2013
▁Hồi	-2014
▁bảy	-2015
▁khô	-2016
▁lộn	-2017
▁mát	-2018
▁mại	-2019
▁mực	-2020
▁nấm	-2021
▁đốt	-2022
▁bong	-2023
▁lành	-2024
▁nhựa	-2025
▁nâng	-2026
▁than	-2027
▁thua	-2028
▁Chris	-2029
▁Giọng	-2030
▁Tiếng	-2031
▁chăng	-2032
▁hương	-2033
▁phiếu	-2034
▁tuyên	-2035
9.	-2036
DP	-2037
oy	-2038
xy	-2039
ýt	-2040
▁i	-2041
bon	-2042
▁OK	-2043
▁Số	-2044
▁cú	-2045
▁kẹ	-2046
▁rồ	-2047
▁tá	-2048
▁tị	-2049
▁vỏ	-2050
▁đố	-2051
▁Bên	-2052
▁GDP	-2053
▁Hoá	-2054
▁Jam	-2055
▁Rập	-2056
▁cấy	-2057
▁dán	-2058
▁gấu	-2059
▁hoả	-2060
▁huy	-2061
▁hồn	-2062
▁kém	-2063
▁lãm	-2064
▁mẩu	-2065
▁trữ	-2066
▁tám	-2067
▁táo	-2068
▁vir	-2069
▁vắc	-2070
▁xưa	-2071
▁đua	-2072
arles	-2073
▁Adam	-2074
▁Bằng	-2075
▁Cùng	-2076
▁biện	-2077
▁chai	-2078
▁chấn	-2079
▁cong	-2080
▁giấu	-2081
▁kiên	-2082
▁muỗi	-2083
▁ngón	-2084
▁rưỡi	-2085
▁thưa	-2086
▁thấu	-2087
▁tiếc	-2088
▁xong	-2089
▁Tương	-2090
▁giảng	-2091
▁huống	-2092
▁phiên	-2093
▁thang	-2094
▁thuận	-2095
▁thánh	-2096
▁Charles	-2097
ky	-2098
og	-2099
sh	-2100
ta	-2101
và	-2102
èm	-2103
ợn	-2104
Con	-2105
ail	-2106
ass	-2107
lip	-2108
log	-2109
ure	-2110
▁Mc	-2111
▁PM	-2112
▁cỗ	-2113
▁hô	-2114
▁hố	-2115
▁ly	-2116
▁mì	-2117
▁ác	-2118
▁ưu	-2119
rael	-2120
▁500	-2121
▁Ben	-2122
▁Bất	-2123
▁Can	-2124
▁bạc	-2125
▁cẩn	-2126
▁cặp	-2127
▁cột	-2128
▁cục	-2129
▁cụt	-2130
▁doạ	-2131
▁dọc	-2132
▁kêu	-2133
▁lắp	-2134
▁mèo	-2135
▁ngu	-2136
▁nấu	-2137
▁pin	-2138
▁thù	-2139
▁tóc	-2140
▁Đất	-2141
▁đeo	-2142
▁đài	-2143
▁đón	-2144
▁đớn	-2145
▁Giáo	-2146
▁Thom	-2147
▁bang	-2148
▁binh	-2149
▁căng	-2150
▁hỏng	-2151
▁ngại	-2152
▁ngọt	-2153
▁nhẫn	-2154
▁nàng	-2155
▁thảo	-2156
▁Điểm	-2157
▁nhuận	-2158
▁George	-2159
▁nguyện	-2160
mo	-2161
ug	-2162
yl	-2163
yn	-2164
ậc	-2165
Vậy	-2166
ock	-2167
ola	-2168
ượu	-2169
▁70	-2170
▁Ed	-2171
▁bọ	-2172
▁gỗ	-2173
▁ro	-2174
▁196	-2175
▁Bar	-2176
▁Cam	-2177
▁Kết	-2178
▁Lan	-2179
▁Mặc	-2180
▁Phụ	-2181
▁bom	-2182
▁bậc	-2183
▁bắn	-2184
▁cốc	-2185
▁dứt	-2186
▁ham	-2187
▁mưa	-2188
▁rủi	-2189
▁vẹn	-2190
▁vốn	-2191
▁đáy	-2192
▁đòi	-2193
▁Khán	-2194
▁Kinh	-2195
▁Quan	-2196
▁giám	-2197
▁giận	-2198
▁khía	-2199
▁lưng	-2200
▁thao	-2201
▁thuê	-2202
▁trấn	-2203
▁vườn	-2204
▁Thiên	-2205
▁hoang	-2206
▁kháng	-2207
▁miệng	-2208
▁Israel	-2209
▁khuyên	-2210
▁thuyền	-2211
là	-2212
ma	-2213
mm	-2214
te	-2215
ain	-2216
ame	-2217
ate	-2218
eet	-2219
ion	-2220
ênh	-2221
ỗng	-2222
▁2.	-2223
▁21	-2224
▁24	-2225
▁90	-2226
▁Ju	-2227
▁Sp	-2228
▁cỏ	-2229
▁lẻ	-2230
▁197	-2231
▁Ber	-2232
▁Cám	-2233
▁Dan	-2234
▁Quá	-2235
▁Thử	-2236
▁Trẻ	-2237
▁béo	-2238
▁bếp	-2239
▁bối	-2240
▁che	-2241
▁dày	-2242
▁dám	-2243
▁gối	-2244
▁hàm	-2245
▁hỗn	-2246
▁mạc	-2247
▁quà	-2248
▁sàn	-2249
▁tân	-2250
▁túc	-2251
▁tật	-2252
▁Đứa	-2253
▁đậu	-2254
▁đắt	-2255
không	-2256
▁2000	-2257
▁Bệnh	-2258
▁Tình	-2259
▁bạch	-2260
▁dáng	-2261
▁dính	-2262
▁khát	-2263
▁khớp	-2264
▁lướt	-2265
▁quét	-2266
▁sung	-2267
▁thổi	-2268
▁truy	-2269
▁trầm	-2270
▁tặng	-2271
▁Thành	-2272
▁chuỗi	-2273
▁gương	-2274
▁huyết	-2275
▁ngang	-2276
▁thiểu	-2277
▁Thomas	-2278
▁thoảng	-2279
2.	-2280
50	-2281
he	-2282
ụt	-2283
ach	-2284
ada	-2285
aul	-2286
cis	-2287
ico	-2288
ins	-2289
tin	-2290
zil	-2291
ướp	-2292
▁Mĩ	-2293
▁Re	-2294
▁am	-2295
▁bổ	-2296
▁dò	-2297
▁gà	-2298
▁gã	-2299
▁gỡ	-2300
▁hư	-2301
▁lũ	-2302
▁lễ	-2303
▁mò	-2304
▁sổ	-2305
▁tò	-2306
▁vỗ	-2307
▁xí	-2308
aceb	-2309
anda	-2310
burg	-2311
▁Mục	-2312
▁Tốt	-2313
▁Vài	-2314
▁bớt	-2315
▁cốt	-2316
▁lùi	-2317
▁lật	-2318
▁lọc	-2319
▁mai	-2320
▁mạn	-2321
▁mập	-2322
▁mến	-2323
▁nảy	-2324
▁nốt	-2325
▁rét	-2326
▁săn	-2327
▁sưu	-2328
▁tắm	-2329
▁đâm	-2330
▁đĩa	-2331
▁đếm	-2332
Nhưng	-2333
stein	-2334
▁Chào	-2335
▁Eric	-2336
▁Mich	-2337
▁bụng	-2338
▁diệt	-2339
▁khóc	-2340
▁lệch	-2341
▁ngựa	-2342
▁rượu	-2343
▁thai	-2344
▁tràn	-2345
▁trạm	-2346
▁trộn	-2347
▁Thiết	-2348
▁cường	-2349
▁khiếp	-2350
▁Brazil	-2351
▁Khoảng	-2352
▁truyện	-2353
NA	-2354
ax	-2355
iz	-2356
Đó	-2357
ơm	-2358
▁À	-2359
ama	-2360
ami	-2361
old	-2362
ony	-2363
ros	-2364
uck	-2365
Đây	-2366
▁Ab	-2367
▁Ap	-2368
▁Ev	-2369
▁Hệ	-2370
▁Lo	-2371
▁Na	-2372
▁mỏ	-2373
▁sa	-2374
▁đe	-2375
▁ưa	-2376
▁ấm	-2377
▁Nga	-2378
▁Pak	-2379
▁Pal	-2380
▁Par	-2381
▁Quý	-2382
▁Rob	-2383
▁Ros	-2384
▁bãi	-2385
▁bắc	-2386
▁bốt	-2387
▁bụi	-2388
▁cám	-2389
▁cối	-2390
▁heo	-2391
▁hưu	-2392
▁hẹn	-2393
▁hứa	-2394
▁kèm	-2395
▁lăn	-2396
▁lều	-2397
▁ném	-2398
▁oxy	-2399
▁sli	-2400
▁tạm	-2401
▁xâm	-2402
▁đốc	-2403
Những	-2404
▁Phil	-2405
▁Thêm	-2406
▁blog	-2407
▁châm	-2408
▁cướp	-2409
▁giam	-2410
▁hiến	-2411
▁hước	-2412
▁khúc	-2413
▁ngầm	-2414
▁ngốc	-2415
▁nhấn	-2416
▁nhắm	-2417
▁phán	-2418
▁quái	-2419
▁thác	-2420
▁tiêm	-2421
▁tỉnh	-2422
▁xứng	-2423
▁Faceb	-2424
▁khung	-2425
▁thiệp	-2426
▁thăng	-2427
▁trăng	-2428
▁trứng	-2429
▁tuyết	-2430
▁Facebook	-2431
▁Pakistan	-2432
AS	-2433
Có	-2434
DN	-2435
dy	-2436
ir	-2437
ka	-2438
òm	-2439
ễn	-2440
Thế	-2441
ane	-2442
ano	-2443
của	-2444
ham	-2445
osh	-2446
ple	-2447
ron	-2448
top	-2449
ươn	-2450
ếch	-2451
▁3,	-2452
▁60	-2453
▁CO	-2454
▁Di	-2455
▁Hy	-2456
▁Hà	-2457
▁Le	-2458
▁Sc	-2459
▁cừ	-2460
▁cự	-2461
▁dở	-2462
▁gõ	-2463
▁lò	-2464
▁mờ	-2465
▁nơ	-2466
▁rô	-2467
▁va	-2468
▁Ôi	-2469
▁ép	-2470
▁ức	-2471
olly	-2472
uyển	-2473
▁ADN	-2474
▁Bắt	-2475
▁Cha	-2476
▁Hội	-2477
▁Sam	-2478
▁cấm	-2479
▁cất	-2480
▁cắm	-2481
▁hẹp	-2482
▁kìa	-2483
▁leo	-2484
▁lão	-2485
▁nén	-2486
▁phó	-2487
▁sốc	-2488
▁sụp	-2489
▁tia	-2490
▁tây	-2491
▁tóm	-2492
▁đực	-2493
iforn	-2494
▁1000	-2495
▁Cháu	-2496
▁Giai	-2497
▁Iran	-2498
▁Khoa	-2499
▁Nước	-2500
▁Paul	-2501
▁bùng	-2502
▁giày	-2503
▁gián	-2504
▁hằng	-2505
▁khao	-2506
▁ngon	-2507
▁ngài	-2508
▁phái	-2509
▁phạt	-2510
▁phổi	-2511
▁thầy	-2512
▁thắc	-2513
▁trào	-2514
▁trần	-2515
▁trắc	-2516
▁trốn	-2517
▁trục	-2518
▁đuôi	-2519
▁Frank	-2520
▁Tưởng	-2521
▁email	-2522
▁nhàng	-2523
▁slide	-2524
▁Đường	-2525
ifornia	-2526
▁camera	-2527
▁giường	-2528
▁Francis	-2529
▁California	-2530
Nó	-2531
cô	-2532
se	-2533
uz	-2534
vi	-2535
xi	-2536
yr	-2537
ùm	-2538
ẫy	-2539
?""	-2540
ael	-2541
ast	-2542
ica	-2543
ier	-2544
ina	-2545
lin	-2546
ney	-2547
ram	-2548
ren	-2549
row	-2550
und	-2551
ver	-2552
wit	-2553
▁23	-2554
▁3.	-2555
▁Dự	-2556
▁Mo	-2557
▁SW	-2558
▁Vi	-2559
▁mi	-2560
▁mỳ	-2561
▁st	-2562
▁tụ	-2563
▁tủ	-2564
▁Đi	-2565
▁ồn	-2566
ling	-2567
udio	-2568
▁201	-2569
▁Bur	-2570
▁Chủ	-2571
▁Cập	-2572
▁DNA	-2573
▁Giả	-2574
▁Mah	-2575
▁May	-2576
▁Mon	-2577
▁Màu	-2578
▁Nha	-2579
▁bơm	-2580
▁bắp	-2581
▁cậy	-2582
▁dao	-2583
▁giơ	-2584
▁hải	-2585
▁lận	-2586
▁rập	-2587
▁san	-2588
▁sữa	-2589
▁thả	-2590
▁tuỳ	-2591
▁Đàn	-2592
▁Đấy	-2593
▁đàm	-2594
▁Hành	-2595
▁buôn	-2596
▁chín	-2597
▁clip	-2598
▁game	-2599
▁gánh	-2600
▁hung	-2601
▁hồng	-2602
▁liều	-2603
▁lông	-2604
▁lùng	-2605
▁manh	-2606
▁nhầm	-2607
▁thẩm	-2608
▁điêu	-2609
▁Dương	-2610
▁giành	-2611
▁khiêu	-2612
▁khoan	-2613
▁logic	-2614
▁thùng	-2615
▁thằng	-2616
▁tướng	-2617
▁Francisco	-2618
Tr	-2619
ox	-2620
to	-2621
ũi	-2622
ằn	-2623
ẻo	-2624
ợt	-2625
▁0	-2626
▁Ừ	-2627
Này	-2628
alk	-2629
car	-2630
ela	-2631
end	-2632
ere	-2633
ert	-2634
ice	-2635
igh	-2636
ike	-2637
ite	-2638
ler	-2639
lie	-2640
ort	-2641
oth	-2642
▁Cá	-2643
▁Kể	-2644
▁Wh	-2645
▁de	-2646
▁dư	-2647
▁lờ	-2648
▁Âm	-2649
▁đẻ	-2650
Mình	-2651
Được	-2652
▁Bon	-2653
▁Dân	-2654
▁Ein	-2655
▁Hàn	-2656
▁Học	-2657
▁Jon	-2658
▁Mad	-2659
▁Mex	-2660
▁Tom	-2661
▁bút	-2662
▁car	-2663
▁cạn	-2664
▁dâm	-2665
▁dắt	-2666
▁dốc	-2667
▁hận	-2668
▁khỉ	-2669
▁lap	-2670
▁lạm	-2671
▁lặn	-2672
▁mấu	-2673
▁ngũ	-2674
▁pho	-2675
▁phú	-2676
▁rắn	-2677
▁toả	-2678
▁tuệ	-2679
▁Bình	-2680
▁Ngôi	-2681
▁Toàn	-2682
▁Twit	-2683
▁chìm	-2684
▁chẩn	-2685
▁cưới	-2686
▁dinh	-2687
▁hiệp	-2688
▁khói	-2689
▁khôi	-2690
▁khôn	-2691
▁kiệt	-2692
▁long	-2693
▁quán	-2694
▁thám	-2695
▁trưa	-2696
▁vĩnh	-2697
▁vươn	-2698
▁xinh	-2699
▁xăng	-2700
▁Điện	-2701
▁James	-2702
▁chước	-2703
▁lường	-2704
▁ngoan	-2705
▁nướng	-2706
▁thuần	-2707
▁trượt	-2708
▁Canada	-2709
▁Mexico	-2710
▁Thường	-2711
▁Trường	-2712
▁studio	-2713
▁Twitter	-2714
▁Einstein	-2715
PS	-2716
Và	-2717
by	-2718
có	-2719
ue	-2720
uk	-2721
up	-2722
▁e	-2723
▁Ú	-2724
Các	-2725
Cái	-2726
Làm	-2727
ann	-2728
ara	-2729
don	-2730
ett	-2731
lan	-2732
olf	-2733
ood	-2734
rot	-2735
ush	-2736
Ông	-2737
ượn	-2738
▁0.	-2739
▁22	-2740
▁75	-2741
▁Gr	-2742
▁MT	-2743
▁Tổ	-2744
▁hà	-2745
▁hã	-2746
▁iP	-2747
▁km	-2748
▁Đị	-2749
erry	-2750
ford	-2751
rist	-2752
Điều	-2753
▁150	-2754
▁194	-2755
▁20.	-2756
▁Bos	-2757
▁Col	-2758
▁GPS	-2759
▁Ira	-2760
▁Nơi	-2761
▁Quí	-2762
▁Ray	-2763
▁Web	-2764
▁Xem	-2765
▁and	-2766
▁bám	-2767
▁bão	-2768
▁chả	-2769
▁cài	-2770
▁cúm	-2771
▁cụm	-2772
▁dàn	-2773
▁dọn	-2774
▁lúa	-2775
▁múa	-2776
▁mệt	-2777
▁nét	-2778
▁rãi	-2779
▁say	-2780
▁tha	-2781
▁van	-2782
▁vòi	-2783
▁xoá	-2784
▁Đột	-2785
▁đền	-2786
▁đới	-2787
quang	-2788
raham	-2789
▁Chưa	-2790
▁Hàng	-2791
▁Loài	-2792
▁Mark	-2793
▁Mình	-2794
▁Nghĩ	-2795
▁Ngài	-2796
▁Okay	-2797
▁Quân	-2798
▁buýt	-2799
▁chìa	-2800
▁chúa	-2801
▁cược	-2802
▁dược	-2803
▁hoại	-2804
▁hông	-2805
▁khơi	-2806
▁nhãn	-2807
▁nhóc	-2808
▁nhặt	-2809
▁nắng	-2810
▁ranh	-2811
▁thói	-2812
▁tiệc	-2813
▁trôi	-2814
▁tung	-2815
▁vang	-2816
▁vạch	-2817
▁duyệt	-2818
▁huyền	-2819
▁khuyến	-2820
▁laptop	-2821
▁nghiện	-2822
▁Michael	-2823
1,	-2824
4.	-2825
8.	-2826
Cô	-2827
ft	-2828
hh	-2829
pe	-2830
ve	-2831
za	-2832
ât	-2833
ẫm	-2834
ộp	-2835
▁Ư	-2836
acc	-2837
ald	-2838
din	-2839
ens	-2840
ero	-2841
iel	-2842
iss	-2843
lar	-2844
oph	-2845
uel	-2846
umb	-2847
▁99	-2848
▁Be	-2849
▁II	-2850
▁Oh	-2851
▁Sử	-2852
▁al	-2853
▁nọ	-2854
▁nở	-2855
▁nụ	-2856
▁rẽ	-2857
▁sô	-2858
▁sứ	-2859
▁vé	-2860
▁xé	-2861
▁xạ	-2862
amin	-2863
iger	-2864
wood	-2865
▁195	-2866
▁400	-2867
▁Bảo	-2868
▁Chị	-2869
▁Gia	-2870
▁Giá	-2871
▁Hoả	-2872
▁Hải	-2873
▁Khu	-2874
▁Leg	-2875
▁Lại	-2876
▁Man	-2877
▁Nat	-2878
▁Ste	-2879
▁Sức	-2880
▁Tim	-2881
▁Wil	-2882
▁bấy	-2883
▁cắp	-2884
▁cừu	-2885
▁dãy	-2886
▁gũi	-2887
▁hệt	-2888
▁kẹt	-2889
▁kịp	-2890
▁lợn	-2891
▁mâu	-2892
▁mốc	-2893
▁nho	-2894
▁quạ	-2895
▁sơn	-2896
▁thô	-2897
▁tri	-2898
▁vua	-2899
▁vội	-2900
▁Đơn	-2901
▁đạc	-2902
ester	-2903
▁Càng	-2904
▁Hans	-2905
▁Hiệp	-2906
▁Hoàn	-2907
▁Iraq	-2908
▁Kính	-2909
▁Loại	-2910
▁Nghe	-2911
▁Tony	-2912
▁chúc	-2913
▁chặn	-2914
▁chớp	-2915
▁feet	-2916
▁hang	-2917
▁lệnh	-2918
▁miêu	-2919
▁muối	-2920
▁ruột	-2921
▁thôn	-2922
▁tivi	-2923
▁trán	-2924
▁trừu	-2925
▁tĩnh	-2926
▁vinh	-2927
▁vịnh	-2928
▁Nghĩa	-2929
▁Thông	-2930
▁Tuyệt	-2931
▁khoái	-2932
▁sướng	-2933
▁thuẫn	-2934
▁virus	-2935
▁Martin	-2936
▁Phương	-2937
,"	-2938
1.	-2939
6.	-2940
8,	-2941
Gi	-2942
ID	-2943
Mẹ	-2944
Ok	-2945
ba	-2946
br	-2947
ca	-2948
ha	-2949
hm	-2950
ix	-2951
kh	-2952
ok	-2953
Ôi	-2954
ẽn	-2955
ớc	-2956
▁Í	-2957
▁ồ	-2958
Chà	-2959
Nếu	-2960
Sao	-2961
ala	-2962
ali	-2963
ana	-2964
ani	-2965
arm	-2966
cel	-2967
ect	-2968
eff	-2969
ern	-2970
len	-2971
nes	-2972
och	-2973
own	-2974
rew	-2975
ube	-2976
van	-2977
▁35	-2978
▁48	-2979
▁Cr	-2980
▁El	-2981
▁Ke	-2982
▁Ob	-2983
▁Sm	-2984
▁To	-2985
▁Tự	-2986
▁bì	-2987
▁co	-2988
▁dỗ	-2989
▁hả	-2990
▁lỡ	-2991
▁mổ	-2992
▁rũ	-2993
▁vở	-2994
▁xế	-2995
▁Úc	-2996
▁đc	-2997
▁đỗ	-2998
▁ốc	-2999
Thật	-3000
bert	-3001
ight	-3002
ward	-3003
▁...	-3004
▁Ang	-3005
▁Big	-3006
▁Don	-3007
▁Fre	-3008
▁Hơn	-3009
▁Lấy	-3010
▁Máy	-3011
▁Mối	-3012
▁Nền	-3013
▁Thì	-3014
▁Vật	-3015
▁bóc	-3016
▁cồn	-3017
▁cởi	-3018
▁cựu	-3019
▁hãm	-3020
▁hòn	-3021
▁kẹo	-3022
▁làn	-3023
▁lôi	-3024
▁lõi	-3025
▁lấp	-3026
▁men	-3027
▁mỏi	-3028
▁mồi	-3029
▁ngụ	-3030
▁nêu	-3031
▁rửa	-3032
▁sét	-3033
▁sôi	-3034
▁sạn	-3035
▁sắt	-3036
▁thẻ	-3037
▁thổ	-3038
▁thợ	-3039
▁trà	-3040
▁tuý	-3041
▁xám	-3042
▁xăm	-3043
▁Ánh	-3044
▁đáo	-3045
▁đóm	-3046
▁độn	-3047
▁Ước	-3048
▁ếch	-3049
acbon	-3050
ander	-3051
▁Cảnh	-3052
▁Cộng	-3053
▁Ngân	-3054
▁Ngôn	-3055
▁Rich	-3056
▁Stan	-3057
▁Thưa	-3058
▁chua	-3059
▁hack	-3060
▁hoan	-3061
▁hoài	-3062
▁khuy	-3063
▁logo	-3064
▁mỏng	-3065
▁mộng	-3066
▁ngắm	-3067
▁ngừa	-3068
▁ngực	-3069
▁nhào	-3070
▁nhạy	-3071
▁ruồi	-3072
▁thuế	-3073
▁tiệm	-3074
▁trật	-3075
▁tuân	-3076
▁Đồng	-3077
▁Haiti	-3078
▁Marco	-3079
▁Thỉnh	-3080
▁cuồng	-3081
▁khẳng	-3082
▁kiêng	-3083
▁luồng	-3084
▁nghẽn	-3085
▁quãng	-3086
▁thiệt	-3087
▁thoái	-3088
▁thỉnh	-3089
▁Nguyên	-3090
▁Thượng	-3091
▁carbon	-3092
▁khuyết	-3093
3.	-3094
7.	-3095
RI	-3096
SD	-3097
di	-3098
eh	-3099
ge	-3100
we	-3101
ùn	-3102
ện	-3103
▁a	-3104
.""	-3105
age	-3106
eah	-3107
ean	-3108
inc	-3109
ink	-3110
ipp	-3111
ish	-3112
mer	-3113
ome	-3114
oot	-3115
que	-3116
toc	-3117
tor	-3118
õng	-3119
▁32	-3120
▁33	-3121
▁95	-3122
▁At	-3123
▁CE	-3124
▁Ec	-3125
▁FG	-3126
▁Or	-3127
▁Pl	-3128
▁Pr	-3129
▁Tu	-3130
▁Vị	-3131
▁dê	-3132
▁ha	-3133
▁lơ	-3134
▁mồ	-3135
▁nợ	-3136
▁rễ	-3137
▁rổ	-3138
▁xi	-3139
▁Ít	-3140
▁Đo	-3141
▁đẽ	-3142
▁đệ	-3143
arah	-3144
ardo	-3145
azon	-3146
edia	-3147
enry	-3148
reen	-3149
site	-3150
▁And	-3151
▁Bác	-3152
▁Bọn	-3153
▁Bốn	-3154
▁Cần	-3155
▁Gab	-3156
▁Ham	-3157
▁Hoà	-3158
▁Jim	-3159
▁Khá	-3160
▁Khí	-3161
▁Lat	-3162
▁Los	-3163
▁Pet	-3164
▁Quả	-3165
▁Sch	-3166
▁Sim	-3167
▁The	-3168
▁Thú	-3169
▁Trở	-3170
▁Tìm	-3171
▁Vic	-3172
▁Wik	-3173
▁Wor	-3174
▁bướ	-3175
▁dạo	-3176
▁dẻo	-3177
▁gan	-3178
▁ghê	-3179
▁hôi	-3180
▁hụt	-3181
▁mil	-3182
▁mày	-3183
▁mép	-3184
▁nhủ	-3185
▁nát	-3186
▁nặc	-3187
▁pha	-3188
▁quê	-3189
▁rad	-3190
▁the	-3191
▁tần	-3192
▁tựa	-3193
▁vòm	-3194
▁vải	-3195
▁vịt	-3196
▁xay	-3197
▁xíu	-3198
▁đợt	-3199
0.000	-3200
igami	-3201
ingap	-3202
otter	-3203
tocin	-3204
▁Bang	-3205
▁Bush	-3206
▁Gand	-3207
▁Giải	-3208
▁Harv	-3209
▁Jane	-3210
▁Josh	-3211
▁Kiểu	-3212
▁Kích	-3213
▁Lego	-3214
▁Năng	-3215
▁Phát	-3216
▁Sinh	-3217
▁Star	-3218
▁Stev	-3219
▁Tuổi	-3220
▁Viện	-3221
▁Wash	-3222
▁Whit	-3223
▁củng	-3224
▁gene	-3225
▁giặt	-3226
▁hạch	-3227
▁inch	-3228
▁khéo	-3229
▁khốn	-3230
▁lăng	-3231
▁lũng	-3232
▁miền	-3233
▁muộn	-3234
▁nhấp	-3235
▁ninh	-3236
▁phím	-3237
▁phốt	-3238
▁rung	-3239
▁tháp	-3240
▁tiệt	-3241
▁tạng	-3242
▁xích	-3243
▁Đáng	-3244
▁đoan	-3245
▁đàng	-3246
▁đảng	-3247
ington	-3248
▁Carol	-3249
▁Chiến	-3250
▁Dường	-3251
▁Henry	-3252
▁Ngoài	-3253
▁Niger	-3254
▁Obama	-3255
▁Trang	-3256
▁cương	-3257
▁nhiếp	-3258
▁phẳng	-3259
▁Đương	-3260
▁Amazon	-3261
▁Singap	-3262
▁cacbon	-3263
▁khuynh	-3264
▁Richard	-3265
▁nghiêng	-3266
▁website	-3267
"?	-3268
2,	-3269
5,	-3270
7,	-3271
Em	-3272
Họ	-3273
Sp	-3274
jm	-3275
kg	-3276
oh	-3277
ss	-3278
sự	-3279
ww	-3280
ín	-3281
ốm	-3282
▁#	-3283
▁+	-3284
▁.	-3285
▁z	-3286
▁–	-3287
ASA	-3288
IDS	-3289
ace	-3290
ant	-3291
are	-3292
asc	-3293
den	-3294
eas	-3295
eop	-3296
eth	-3297
gar	-3298
ini	-3299
iti	-3300
iễu	-3301
lex	-3302
nik	-3303
oca	-3304
oll	-3305
rút	-3306
ten	-3307
ura	-3308
uss	-3309
ves	-3310
▁'.	-3311
▁26	-3312
▁28	-3313
▁31	-3314
▁36	-3315
▁3:	-3316
▁45	-3317
▁7.	-3318
▁AO	-3319
▁BJ	-3320
▁Bl	-3321
▁Go	-3322
▁He	-3323
▁Mi	-3324
▁NL	-3325
▁Op	-3326
▁Rw	-3327
▁Tư	-3328
▁WK	-3329
▁Yo	-3330
▁bó	-3331
▁cộ	-3332
▁ga	-3333
▁kẽ	-3334
▁mẻ	-3335
▁nề	-3336
▁vờ	-3337
▁ủi	-3338
Vâng	-3339
atch	-3340
ates	-3341
berg	-3342
erek	-3343
icon	-3344
inda	-3345
ings	-3346
jmud	-3347
lian	-3348
onia	-3349
ound	-3350
▁191	-3351
▁Chà	-3352
▁Chữ	-3353
▁Dar	-3354
▁Haw	-3355
▁Kam	-3356
▁Khả	-3357
▁Lau	-3358
▁Lee	-3359
▁Mel	-3360
▁Mấy	-3361
▁Nhờ	-3362
▁Nob	-3363
▁Pat	-3364
▁Quy	-3365
▁Rio	-3366
▁Sai	-3367
▁Sáu	-3368
▁Tal	-3369
▁Tes	-3370
▁Tối	-3371
▁Văn	-3372
▁Vẫn	-3373
▁bia	-3374
▁bìa	-3375
▁bấm	-3376
▁bẫy	-3377
▁bốc	-3378
▁bồn	-3379
▁dải	-3380
▁dịp	-3381
▁gói	-3382
▁kẹp	-3383
▁lát	-3384
▁léo	-3385
▁mar	-3386
▁ngớ	-3387
▁nhở	-3388
▁non	-3389
▁nón	-3390
▁phì	-3391
▁phô	-3392
▁rau	-3393
▁ria	-3394
▁râu	-3395
▁rìa	-3396
▁str	-3397
▁tuy	-3398
▁tôm	-3399
▁uốn	-3400
▁vay	-3401
▁vây	-3402
▁xóm	-3403
▁Đặc	-3404
▁đậm	-3405
▁đốn	-3406
▁đồi	-3407
Người	-3408
attan	-3409
trong	-3410
▁AIDS	-3411
▁Brow	-3412
▁Bước	-3413
▁Chất	-3414
▁Coca	-3415
▁Ivan	-3416
▁Jack	-3417
▁Jeff	-3418
▁Jenn	-3419
▁Mike	-3420
▁NASA	-3421
▁Nick	-3422
▁Quay	-3423
▁Quần	-3424
▁Scot	-3425
▁Stew	-3426
▁Tiền	-3427
▁Trời	-3428
▁Tính	-3429
▁Từng	-3430
▁biếm	-3431
▁chôn	-3432
▁chục	-3433
▁giáp	-3434
▁golf	-3435
▁hiếp	-3436
▁huýt	-3437
▁hãng	-3438
▁hạng	-3439
▁khan	-3440
▁khen	-3441
▁lang	-3442
▁mười	-3443
▁mảng	-3444
▁mệnh	-3445
▁ngẩn	-3446
▁ngửi	-3447
▁pháo	-3448
▁prot	-3449
▁rỗng	-3450
▁thâm	-3451
▁thép	-3452
▁thấm	-3453
▁thắt	-3454
▁trọn	-3455
▁tông	-3456
▁đoạt	-3457
▁địch	-3458
ilicon	-3459
ipedia	-3460
▁Apple	-3461
▁Derek	-3462
▁Gabby	-3463
▁Trông	-3464
▁huynh	-3465
▁khoán	-3466
▁phiêu	-3467
▁quyên	-3468
▁quyến	-3469
▁thung	-3470
▁thịnh	-3471
jmuddin	-3472
origami	-3473
▁Christ	-3474
▁Gandhi	-3475
▁Lester	-3476
▁Victor	-3477
▁nghiệt	-3478
▁stress	-3479
▁Nigeria	-3480
▁oxytocin	-3481
▁Najmuddin	-3482
▁Singapore	-3483
▁Wikipedia	-3484
5.	-3485
BA	-3486
Qu	-3487
Sự	-3488
cc	-3489
me	-3490
ny	-3491
rô	-3492
ux	-3493
ẹo	-3494
ộm	-3495
▁&	-3496
▁j	-3497
▁Ẩ	-3498
00.	-3499
500	-3500
air	-3501
bia	-3502
ene	-3503
ger	-3504
gra	-3505
ics	-3506
igg	-3507
ita	-3508
liz	-3509
lor	-3510
ner	-3511
org	-3512
pam	-3513
tôi	-3514
uba	-3515
urt	-3516
ẩng	-3517
ửng	-3518
▁2:	-3519
▁55	-3520
▁8.	-3521
▁9,	-3522
▁Bi	-3523
▁CC	-3524
▁Cố	-3525
▁GG	-3526
▁Gu	-3527
▁Gw	-3528
▁Ne	-3529
▁Os	-3530
▁PH	-3531
▁Ra	-3532
▁Tỉ	-3533
▁Tỷ	-3534
▁Ug	-3535
▁Vũ	-3536
▁Vợ	-3537
▁We	-3538
▁Xe	-3539
▁bù	-3540
▁dã	-3541
▁lề	-3542
▁lụ	-3543
▁nô	-3544
▁rã	-3545
▁xỉ	-3546
▁Đa	-3547
▁Đô	-3548
Cola	-3549
alin	-3550
atar	-3551
elyn	-3552
eron	-3553
evin	-3554
hana	-3555
hone	-3556
iano	-3557
iban	-3558
ille	-3559
inia	-3560
ollo	-3561
omet	-3562
opia	-3563
otle	-3564
ther	-3565
zero	-3566
Đúng	-3567
Đừng	-3568
▁10,	-3569
▁250	-3570
▁700	-3571
▁Bay	-3572
▁CEO	-3573
▁Cas	-3574
▁Cop	-3575
▁Dis	-3576
▁For	-3577
▁Joe	-3578
▁Kar	-3579
▁Lời	-3580
▁Mat	-3581
▁Mức	-3582
▁Nan	-3583
▁Red	-3584
▁She	-3585
▁Tem	-3586
▁Thị	-3587
▁Toà	-3588
▁Tác	-3589
▁Tóm	-3590
▁USD	-3591
▁Xây	-3592
▁You	-3593
▁bẩn	-3594
▁bẩy	-3595
▁bận	-3596
▁bồi	-3597
▁cạo	-3598
▁cẩu	-3599
▁dâu	-3600
▁dưa	-3601
▁dời	-3602
▁hâm	-3603
▁hân	-3604
▁hét	-3605
▁kín	-3606
▁luỹ	-3607
▁lây	-3608
▁met	-3609
▁mic	-3610
▁mẹo	-3611
▁mọc	-3612
▁ngừ	-3613
▁nản	-3614
▁nắp	-3615
▁nếp	-3616
▁phe	-3617
▁tre	-3618
▁vặn	-3619
▁đệm	-3620
ondon	-3621
orden	-3622
utnik	-3623
▁2009	-3624
▁Benj	-3625
▁Băng	-3626
▁Char	-3627
▁Chúc	-3628
▁Clin	-3629
▁Higg	-3630
▁Hill	-3631
▁Long	-3632
▁Mand	-3633
▁Manh	-3634
▁Nhất	-3635
▁Phật	-3636
▁Rand	-3637
▁Sand	-3638
▁Siêu	-3639
▁Sáng	-3640
▁Tiến	-3641
▁Virg	-3642
▁Yves	-3643
▁bỏng	-3644
▁canh	-3645
▁cent	-3646
▁chay	-3647
▁cuộn	-3648
▁ghim	-3649
▁giãn	-3650
▁giật	-3651
▁giọt	-3652
▁mãnh	-3653
▁mươi	-3654
▁nano	-3655
▁ngục	-3656
▁nhát	-3657
▁phớt	-3658
▁quad	-3659
▁quát	-3660
▁quặc	-3661
▁soạn	-3662
▁sùng	-3663
▁then	-3664
▁tháo	-3665
▁thơm	-3666
▁thầm	-3667
▁thốt	-3668
▁tiễn	-3669
▁tươi	-3670
▁vacc	-3671
▁vựng	-3672
▁Đoạn	-3673
▁Đảng	-3674
▁đôla	-3675
▁ương	-3676
......	-3677
easure	-3678
▁Alice	-3679
▁Arist	-3680
▁Brown	-3681
▁Ghana	-3682
▁Green	-3683
▁Keith	-3684
▁Sarah	-3685
▁Simon	-3686
▁Steve	-3687
▁Thống	-3688
▁cưỡng	-3689
▁khiếm	-3690
▁lưỡng	-3691
▁ngưng	-3692
▁ngẩng	-3693
▁phồng	-3694
▁piano	-3695
▁quăng	-3696
▁thiếp	-3697
▁thiền	-3698
▁tràng	-3699
▁tráng	-3700
▁tuyển	-3701
▁vương	-3702
▁xướng	-3703
▁Boston	-3704
▁Joshua	-3705
▁Julian	-3706
▁Norden	-3707
▁Rezero	-3708
▁Rwanda	-3709
▁Uganda	-3710
▁iPhone	-3711
▁Abraham	-3712
▁Harvard	-3713
▁Stewart	-3714
▁origami	-3715
▁protein	-3716
▁vaccine	-3717
▁Victoria	-3718
▁Virginia	-3719
▁Aristotle	-3720
▁Manhattan	-3721
▁Washington	-3722
3,	-3723
4,	-3724
6,	-3725
Ai	-3726
DI	-3727
IP	-3728
IT	-3729
Kh	-3730
MA	-3731
OL	-3732
SA	-3733
Vì	-3734
ea	-3735
ep	-3736
gi	-3737
go	-3738
ke	-3739
ko	-3740
ld	-3741
lu	-3742
mp	-3743
mà	-3744
na	-3745
pr	-3746
rr	-3747
ía	-3748
đó	-3749
ịn	-3750
200	-3751
Tất	-3752
ale	-3753
azz	-3754
bie	-3755
các	-3756
der	-3757
dro	-3758
eng	-3759
hai	-3760
har	-3761
ild	-3762
lay	-3763
làm	-3764
một	-3765
oft	-3766
oop	-3767
ori	-3768
ota	-3769
red	-3770
rắc	-3771
ust	-3772
xin	-3773
yon	-3774
ờng	-3775
▁"—	-3776
▁$.	-3777
▁37	-3778
▁5.	-3779
▁54	-3780
▁86	-3781
▁Av	-3782
▁BM	-3783
▁CL	-3784
▁Du	-3785
▁En	-3786
▁Gh	-3787
▁Ha	-3788
▁Hi	-3789
▁Hu	-3790
▁Ky	-3791
▁La	-3792
▁Ma	-3793
▁No	-3794
▁Nữ	-3795
▁Vô	-3796
▁Xã	-3797
▁bẻ	-3798
▁bế	-3799
▁cớ	-3800
▁mỉ	-3801
▁mỹ	-3802
▁né	-3803
▁rỉ	-3804
▁sp	-3805
▁sọ	-3806
▁tẻ	-3807
▁uy	-3808
▁vớ	-3809
▁xà	-3810
▁ào	-3811
▁ái	-3812
▁âu	-3813
▁êm	-3814
▁Ẩn	-3815
▁Ừm	-3816
Chúa	-3817
Cuộc	-3818
ahid	-3819
ardy	-3820
brid	-3821
côla	-3822
etro	-3823
ever	-3824
izza	-3825
lash	-3826
line	-3827
lymp	-3828
road	-3829
thur	-3830
ucks	-3831
▁000	-3832
▁140	-3833
▁193	-3834
▁600	-3835
▁Air	-3836
▁Bat	-3837
▁Bob	-3838
▁Báo	-3839
▁Bảy	-3840
▁Cap	-3841
▁Chi	-3842
▁Chú	-3843
▁Của	-3844
▁Dam	-3845
▁Dor	-3846
▁EDI	-3847
▁Gar	-3848
▁Han	-3849
▁Her	-3850
▁Hắn	-3851
▁Hợp	-3852
▁Jer	-3853
▁Kid	-3854
▁Lar	-3855
▁Lạp	-3856
▁MIT	-3857
▁Mac	-3858
▁Mal	-3859
▁Mau	-3860
▁Mic	-3861
▁Mur	-3862
▁Mus	-3863
▁Mất	-3864
▁Nor	-3865
▁Não	-3866
▁Nỗi	-3867
▁Oak	-3868
▁Pop	-3869
▁Qua	-3870
▁Quỹ	-3871
▁Rad	-3872
▁Tas	-3873
▁Ter	-3874
▁Trí	-3875
▁Trò	-3876
▁Tul	-3877
▁Tấm	-3878
▁Wow	-3879
▁Yếu	-3880
▁bưu	-3881
▁bộc	-3882
▁cóc	-3883
▁cắn	-3884
▁dập	-3885
▁dẹp	-3886
▁gai	-3887
▁ghé	-3888
▁gạt	-3889
▁gậy	-3890
▁gớm	-3891
▁hen	-3892
▁hàn	-3893
▁hóc	-3894
▁kìm	-3895
▁lâm	-3896
▁lắc	-3897
▁lột	-3898
▁mài	-3899
▁nan	-3900
▁nhí	-3901
▁nhị	-3902
▁qui	-3903
▁rỗi	-3904
▁rực	-3905
▁sáp	-3906
▁sói	-3907
▁súp	-3908
▁sấu	-3909
▁sắm	-3910
▁tát	-3911
▁tím	-3912
▁tít	-3913
▁túp	-3914
▁ván	-3915
▁xôi	-3916
▁Đâu	-3917
▁Địa	-3918
▁đòn	-3919
▁đúc	-3920
abeth	-3921
ascal	-3922
athan	-3923
burgh	-3924
chúng	-3925
garet	-3926
ipcar	-3927
ister	-3928
người	-3929
umbai	-3930
utube	-3931
ville	-3932
▁Alex	-3933
▁Arch	-3934
▁Band	-3935
▁Biến	-3936
▁Biểu	-3937
▁Bono	-3938
▁Bánh	-3939
▁Cent	-3940
▁Chad	-3941
▁Chia	-3942
▁Chìa	-3943
▁Chết	-3944
▁Dave	-3945
▁Eliz	-3946
▁Flor	-3947
▁Gold	-3948
▁Hiệu	-3949
▁Icel	-3950
▁Jord	-3951
▁Khác	-3952
▁Lang	-3953
▁Leon	-3954
▁Marc	-3955
▁Matt	-3956
▁Miss	-3957
▁Nhận	-3958
▁Port	-3959
▁Ross	-3960
▁TEDx	-3961
▁Walk	-3962
▁West	-3963
▁Xanh	-3964
▁banh	-3965
▁chip	-3966
▁chày	-3967
▁chóc	-3968
▁chằm	-3969
▁chọc	-3970
▁dũng	-3971
▁ghen	-3972
▁hổng	-3973
▁khâu	-3974
▁kiếp	-3975
▁lượt	-3976
▁lồng	-3977
▁miệt	-3978
▁màng	-3979
▁ngơi	-3980
▁ngợi	-3981
▁ngủi	-3982
▁nhạo	-3983
▁nhạt	-3984
▁nhằm	-3985
▁phác	-3986
▁phơi	-3987
▁tang	-3988
▁thạo	-3989
▁thắn	-3990
▁thắp	-3991
▁treo	-3992
▁trùm	-3993
▁trỗi	-3994
▁tước	-3995
▁vắng	-3996
▁xuân	-3997
▁Định	-3998
▁Động	-3999
▁đuối	-4000
Chuyện	-4001
estine	-4002
pamine	-4003
▁1.000	-4004
▁Angel	-4005
▁Atlan	-4006
▁Brian	-4007
▁Broad	-4008
▁Gates	-4009
▁Giáng	-4010
▁Grand	-4011
▁Holly	-4012
▁Julie	-4013
▁Kevin	-4014
▁Nguồn	-4015
▁Nhiệm	-4016
▁Nobel	-4017
▁Olymp	-4018
▁Phòng	-4019
▁Robot	-4020
▁Solly	-4021
▁Tesla	-4022
▁Thánh	-4023
▁Trọng	-4024
▁World	-4025
▁buồng	-4026
▁chênh	-4027
▁ngươi	-4028
▁pizza	-4029
▁pound	-4030
▁radio	-4031
▁vướng	-4032
▁Arthur	-4033
▁Daniel	-4034
▁Disney	-4035
▁Evelyn	-4036
▁Latinh	-4037
▁London	-4038
▁Mumbai	-4039
▁Pascal	-4040
▁Potter	-4041
▁Robert	-4042
▁Tasman	-4043
▁Truyền	-4044
▁chuyền	-4045
▁chướng	-4046
▁hacker	-4047
▁nghịch	-4048
▁nhường	-4049
▁100,000	-4050
▁Cameron	-4051
▁Clinton	-4052
▁Iceland	-4053
▁Mandela	-4054
▁Melinda	-4055
▁Rosling	-4056
▁Taliban	-4057
▁Youtube	-4058
▁Benjamin	-4059
▁Margaret	-4060
▁Stanford	-4061
▁Elizabeth	-4062
-1	-4063
Bố	-4064
CD	-4065
Sh	-4066
],	-4067
bo	-4068
do	-4069
ef	-4070
hệ	-4071
jo	-4072
ju	-4073
kr	-4074
my	-4075
ni	-4076
tô	-4077
ze	-4078
zz	-4079
zơ	-4080
õm	-4081
ún	-4082
đã	-4083
ẳm	-4084
▁:	-4085
Cho	-4086
Chú	-4087
Chỉ	-4088
Một	-4089
The	-4090
agh	-4091
aha	-4092
ake	-4093
dam	-4094
eck	-4095
eda	-4096
eep	-4097
ese	-4098
esh	-4099
gen	-4100
ida	-4101
ila	-4102
ino	-4103
iro	-4104
ise	-4105
itt	-4106
ity	-4107
ker	-4108
les	-4109
mmm	-4110
nie	-4111
onx	-4112
ooh	-4113
oom	-4114
ory	-4115
oto	-4116
our	-4117
reg	-4118
thi	-4119
thì	-4120
tại	-4121
via	-4122
win	-4123
yan	-4124
Đời	-4125
ươc	-4126
ấng	-4127
▁%,	-4128
▁1⁄	-4129
▁27	-4130
▁4.	-4131
▁44	-4132
▁46	-4133
▁6,	-4134
▁65	-4135
▁7,	-4136
▁74	-4137
▁9.	-4138
▁96	-4139
▁AK	-4140
▁Ag	-4141
▁Bỏ	-4142
▁CA	-4143
▁CD	-4144
▁CP	-4145
▁Dễ	-4146
▁Er	-4147
▁Ex	-4148
▁Gl	-4149
▁IQ	-4150
▁Im	-4151
▁JH	-4152
▁Kn	-4153
▁Kẻ	-4154
▁Kỷ	-4155
▁My	-4156
▁Mô	-4157
▁Ol	-4158
▁Ox	-4159
▁Ro	-4160
▁Su	-4161
▁Sw	-4162
▁TH	-4163
▁Tế	-4164
▁Un	-4165
▁ax	-4166
▁bê	-4167
▁bự	-4168
▁cọ	-4169
▁dì	-4170
▁el	-4171
▁go	-4172
▁hé	-4173
▁hò	-4174
▁mạ	-4175
▁mớ	-4176
▁mỡ	-4177
▁ok	-4178
▁on	-4179
▁sc	-4180
▁tớ	-4181
▁vỉ	-4182
▁xả	-4183
▁ân	-4184
▁ôi	-4185
▁ôm	-4186
▁Đỏ	-4187
▁Ảo	-4188
▁ắc	-4189
▁ốm	-4190
Nghe	-4191
aden	-4192
ader	-4193
aine	-4194
ames	-4195
awes	-4196
ectr	-4197
elle	-4198
ello	-4199
eman	-4200
eryl	-4201
esia	-4202
etti	-4203
ewis	-4204
heim	-4205
ideo	-4206
ilet	-4207
ison	-4208
itan	-4209
liam	-4210
llar	-4211
olla	-4212
ooks	-4213
outh	-4214
pest	-4215
phic	-4216
rane	-4217
rove	-4218
stor	-4219
thal	-4220
yria	-4221
▁11.	-4222
▁188	-4223
▁202	-4224
▁203	-4225
▁30.	-4226
▁Acc	-4227
▁Ara	-4228
▁Bal	-4229
▁Bol	-4230
▁Bud	-4231
▁Dàn	-4232
▁Dầu	-4233
▁Ele	-4234
▁FGM	-4235
▁Ger	-4236
▁Giữ	-4237
▁Hẳn	-4238
▁Jos	-4239
▁Kal	-4240
▁Kim	-4241
▁Leo	-4242
▁Lib	-4243
▁Lin	-4244
▁Lên	-4245
▁Mil	-4246
▁Môi	-4247
▁Mẫu	-4248
▁Nel	-4249
▁Nic	-4250
▁Này	-4251
▁Oli	-4252
▁Rom	-4253
▁Sah	-4254
▁Sal	-4255
▁Sen	-4256
▁Sky	-4257
▁Suy	-4258
▁Syl	-4259
▁Sản	-4260
▁Thổ	-4261
▁Tài	-4262
▁Tôn	-4263
▁Tạm	-4264
▁Tạo	-4265
▁Tạp	-4266
▁Tập	-4267
▁Tới	-4268
▁Ukr	-4269
▁Ung	-4270
▁Van	-4271
▁Vik	-4272
▁Wat	-4273
▁bin	-4274
▁bit	-4275
▁băn	-4276
▁bầy	-4277
▁bục	-4278
▁bực	-4279
▁cay	-4280
▁chì	-4281
▁chẽ	-4282
▁chợ	-4283
▁com	-4284
▁câm	-4285
▁cằn	-4286
▁dệt	-4287
▁dồn	-4288
▁gel	-4289
▁gác	-4290
▁gìn	-4291
▁gật	-4292
▁hoi	-4293
▁hun	-4294
▁hầm	-4295
▁khử	-4296
▁lội	-4297
▁lụa	-4298
▁mòn	-4299
▁môt	-4300
▁mầm	-4301
▁mịn	-4302
▁mọt	-4303
▁ngư	-4304
▁nâu	-4305
▁nại	-4306
▁nộp	-4307
▁nực	-4308
▁phế	-4309
▁que	-4310
▁quỵ	-4311
▁run	-4312
▁ráp	-4313
▁rạp	-4314
▁rải	-4315
▁rệt	-4316
▁soi	-4317
▁sáo	-4318
▁súc	-4319
▁sấm	-4320
▁sứa	-4321
▁thề	-4322
▁trệ	-4323
▁tuỷ	-4324
▁tăm	-4325
▁tạc	-4326
▁tảo	-4327
▁tẩy	-4328
▁vit	-4329
▁vàn	-4330
▁vạt	-4331
▁vần	-4332
▁vặt	-4333
▁vọt	-4334
▁vụn	-4335
▁xảo	-4336
▁Đám	-4337
▁Đời	-4338
▁đai	-4339
▁đom	-4340
▁đạn	-4341
▁đốm	-4342
▁đứt	-4343
ansas	-4344
ation	-4345
bucks	-4346
erson	-4347
ibera	-4348
ierra	-4349
▁Alan	-4350
▁Buồn	-4351
▁Chen	-4352
▁Chân	-4353
▁Chạy	-4354
▁Conn	-4355
▁Dưới	-4356
▁Ethi	-4357
▁Free	-4358
▁Giới	-4359
▁Gore	-4360
▁Gwen	-4361
▁Hiển	-4362
▁Homo	-4363
▁Hồng	-4364
▁Jeop	-4365
▁Jess	-4366
▁King	-4367
▁Luật	-4368
▁Lòng	-4369
▁Mong	-4370
▁Mạch	-4371
▁Nguy	-4372
▁Niềm	-4373
▁Ommm	-4374
▁Phân	-4375
▁Phía	-4376
▁Phản	-4377
▁Plat	-4378
▁Stef	-4379
▁Tham	-4380
▁Thầy	-4381
▁Thức	-4382
▁Việt	-4383
▁Vòng	-4384
▁Vườn	-4385
▁Yeah	-4386
▁bách	-4387
▁bướm	-4388
▁bổng	-4389
▁chíp	-4390
▁chùm	-4391
▁chăn	-4392
▁cưng	-4393
▁cổng	-4394
▁dưng	-4395
▁gien	-4396
▁jazz	-4397
▁khoé	-4398
▁khẩn	-4399
▁link	-4400
▁lách	-4401
▁lưỡi	-4402
▁lượn	-4403
▁mượn	-4404
▁ngào	-4405
▁ngây	-4406
▁ngập	-4407
▁nhàm	-4408
▁nháy	-4409
▁nhún	-4410
▁nhăn	-4411
▁nuốt	-4412
▁nồng	-4413
▁rành	-4414
▁rùng	-4415
▁sưng	-4416
▁sảnh	-4417
▁sửng	-4418
▁sững	-4419
▁taxi	-4420
▁thẳm	-4421
▁thẹn	-4422
▁trân	-4423
▁trêu	-4424
▁trội	-4425
▁tuộc	-4426
▁túng	-4427
▁viêm	-4428
▁võng	-4429
▁vũng	-4430
▁xoắn	-4431
▁điếu	-4432
▁điền	-4433
▁đọng	-4434
bridge	-4435
burger	-4436
enture	-4437
rosoft	-4438
▁1980.	-4439
▁2,000	-4440
▁2000,	-4441
▁2009.	-4442
▁Bronx	-4443
▁Colom	-4444
▁Higgs	-4445
▁Indon	-4446
▁Laden	-4447
▁Lượng	-4448
▁Paris	-4449
▁Scott	-4450
▁Smith	-4451
▁South	-4452
▁Stone	-4453
▁Syria	-4454
▁Triều	-4455
▁cello	-4456
▁hydro	-4457
▁khiêm	-4458
▁khoai	-4459
▁khoác	-4460
▁khoăn	-4461
▁khuất	-4462
▁khùng	-4463
▁nhiễu	-4464
▁nhuộm	-4465
▁nhánh	-4466
▁quáng	-4467
▁thình	-4468
▁thính	-4469
▁virut	-4470
▁virút	-4471
▁vượng	-4472
▁xưởng	-4473
▁10.000	-4474
▁Andrew	-4475
▁Apollo	-4476
▁Graham	-4477
▁Howard	-4478
▁Nelson	-4479
▁Oxford	-4480
▁Phượng	-4481
▁Sylvia	-4482
▁Walker	-4483
▁Watson	-4484
▁choáng	-4485
▁dollar	-4486
▁nghênh	-4487
▁sôcôla	-4488
▁thoáng	-4489
▁toilet	-4490
▁Angeles	-4491
▁Bandura	-4492
▁Florida	-4493
▁Langley	-4494
▁Phillip	-4495
▁Sputnik	-4496
▁Tempest	-4497
▁William	-4498
▁vitamin	-4499
▁Ethiopia	-4500
▁Jeopardy	-4501
▁Jonathan	-4502
▁Leonardo	-4503
▁Treasure	-4504
▁dopamine	-4505
▁Accenture	-4506
▁Cambridge	-4507
▁Hollywood	-4508
▁Indonesia	-4509
▁Microsoft	-4510
▁Palestine	-4511
▁Starbucks	-4512
▁hamburger	-4513
.'	-4514
25	-4515
99	-4516
AR	-4517
IA	-4518
MS	-4519
Oh	-4520
PT	-4521
Ph	-4522
RN	-4523
Ta	-4524
VD	-4525
be	-4526
bs	-4527
da	-4528
fa	-4529
fe	-4530
fi	-4531
gô	-4532
ih	-4533
ki	-4534
pa	-4535
pi	-4536
py	-4537
sc	-4538
si	-4539
so	-4540
ye	-4541
ìu	-4542
ơc	-4543
ẹt	-4544
ỉu	-4545
ụi	-4546
▁อ	-4547
,""	-4548
00,	-4549
Bản	-4550
Chờ	-4551
Cám	-4552
ECD	-4553
Sức	-4554
Tốt	-4555
Xin	-4556
acy	-4557
aid	-4558
ari	-4559
ata	-4560
ats	-4561
awa	-4562
bảo	-4563
bốn	-4564
cas	-4565
cho	-4566
col	-4567
dys	-4568
ehr	-4569
eim	-4570
eli	-4571
emy	-4572
ena	-4573
erg	-4574
err	-4575
fel	-4576
hov	-4577
ibo	-4578
ien	-4579
iet	-4580
ile	-4581
imp	-4582
ito	-4583
itz	-4584
iuk	-4585
iêm	-4586
kar	-4587
kel	-4588
key	-4589
kin	-4590
kyo	-4591
lah	-4592
low	-4593
lyn	-4594
này	-4595
ole	-4596
olo	-4597
ona	-4598
ons	-4599
opy	-4600
ote	-4601
oại	-4602
oạt	-4603
per	-4604
pha	-4605
pon	-4606
rac	-4607
ray	-4608
res	-4609
rob	-4610
rof	-4611
rus	-4612
uit	-4613
unt	-4614
uro	-4615
way	-4616
ươm	-4617
ưởi	-4618
ụng	-4619
▁0,	-4620
▁38	-4621
▁4,	-4622
▁43	-4623
▁5:	-4624
▁6.	-4625
▁68	-4626
▁AG	-4627
▁AV	-4628
▁As	-4629
▁BP	-4630
▁Bo	-4631
▁Bé	-4632
▁Bí	-4633
▁Co	-4634
▁Cy	-4635
▁Cú	-4636
▁Dr	-4637
▁Es	-4638
▁Gã	-4639
▁Hạ	-4640
▁JR	-4641
▁Kỹ	-4642
▁LA	-4643
▁LB	-4644
▁Mu	-4645
▁Oz	-4646
▁RW	-4647
▁Sk	-4648
▁Sĩ	-4649
▁Um	-4650
▁Uy	-4651
▁Wr	-4652
▁ao	-4653
▁bể	-4654
▁củ	-4655
▁eo	-4656
▁gồ	-4657
▁mm	-4658
▁nạ	-4659
▁nộ	-4660
▁sh	-4661
▁sờ	-4662
▁tê	-4663
▁tú	-4664
▁tơ	-4665
▁vã	-4666
▁vả	-4667
▁xì	-4668
▁xứ	-4669
▁Áo	-4670
▁Đồ	-4671
▁đà	-4672
▁đè	-4673
▁đế	-4674
Chào	-4675
Cháu	-4676
Ngài	-4677
Spee	-4678
Tube	-4679
acci	-4680
acre	-4681
aeda	-4682
agen	-4683
alia	-4684
aram	-4685
ater	-4686
athy	-4687
avin	-4688
chan	-4689
elly	-4690
ence	-4691
enda	-4692
eric	-4693
erom	-4694
ette	-4695
evil	-4696
eyer	-4697
ibon	-4698
ifer	-4699
ihad	-4700
iley	-4701
illy	-4702
ines	-4703
itha	-4704
itus	-4705
kins	-4706
lair	-4707
moor	-4708
moud	-4709
nets	-4710
oban	-4711
olas	-4712
oney	-4713
otto	-4714
plex	-4715
reet	-4716
rosp	-4717
ryst	-4718
seus	-4719
ssex	-4720
ster	-4721
ston	-4722
ters	-4723
theo	-4724
ulia	-4725
uria	-4726
vent	-4727
ween	-4728
xanh	-4729
yrne	-4730
yrus	-4731
được	-4732
▁1,2	-4733
▁1.3	-4734
▁10.	-4735
▁12,	-4736
▁180	-4737
▁187	-4738
▁189	-4739
▁192	-4740
▁205	-4741
▁404	-4742
▁50.	-4743
▁90.	-4744
▁ARN	-4745
▁Ali	-4746
▁Amy	-4747
▁Aus	-4748
▁Bab	-4749
▁Bir	-4750
▁Bot	-4751
▁Bàn	-4752
▁Chu	-4753
▁Cur	-4754
▁Cây	-4755
▁Côn	-4756
▁Căn	-4757
▁DVD	-4758
▁Deb	-4759
▁Del	-4760
▁Ear	-4761
▁Eve	-4762
▁Fab	-4763
▁Gal	-4764
▁Gor	-4765
▁Hal	-4766
▁Hav	-4767
▁Haz	-4768
▁Hơi	-4769
▁Hậu	-4770
▁Jay	-4771
▁Khó	-4772
▁Kuz	-4773
▁Lou	-4774
▁Lớn	-4775
▁MRI	-4776
▁Max	-4777
▁Mor	-4778
▁Mos	-4779
▁Moz	-4780
▁Mul	-4781
▁Mới	-4782
▁NBA	-4783
▁Nar	-4784
▁Nik	-4785
▁Nov	-4786
▁Per	-4787
▁Pos	-4788
▁Pro	-4789
▁Riv	-4790
▁Rod	-4791
▁Ron	-4792
▁Roy	-4793
▁Rào	-4794
▁Sad	-4795
▁Sue	-4796
▁Sun	-4797
▁Thư	-4798
▁Tor	-4799
▁Trừ	-4800
▁Tàu	-4801
▁Tức	-4802
▁Uhm	-4803
▁Ush	-4804
▁Viv	-4805
▁Vua	-4806
▁Vận	-4807
▁Win	-4808
▁Yêu	-4809
▁amm	-4810
▁amp	-4811
▁bát	-4812
▁bịa	-4813
▁bọc	-4814
▁chà	-4815
▁chổ	-4816
▁chở	-4817
▁cáp	-4818
▁cõi	-4819
▁cưa	-4820
▁dai	-4821
▁dơi	-4822
▁dại	-4823
▁dạn	-4824
▁dấn	-4825
▁dột	-4826
▁fan	-4827
▁gào	-4828
▁gãy	-4829
▁gập	-4830
▁gục	-4831
▁hon	-4832
▁húp	-4833
▁kem	-4834
▁keo	-4835
▁khe	-4836
▁kil	-4837
▁kẽm	-4838
▁lam	-4839
▁lay	-4840
▁lui	-4841
▁lùn	-4842
▁lạy	-4843
▁lẫm	-4844
▁méo	-4845
▁mầu	-4846
▁mỉm	-4847
▁neo	-4848
▁ngó	-4849
▁nha	-4850
▁nhã	-4851
▁nhẽ	-4852
▁nàn	-4853
▁náo	-4854
▁nãy	-4855
▁nín	-4856
▁nạp	-4857
▁nạt	-4858
▁nọc	-4859
▁ooh	-4860
▁oxi	-4861
▁quỷ	-4862
▁rap	-4863
▁ron	-4864
▁rèn	-4865
▁rìu	-4866
▁rọi	-4867
▁rốt	-4868
▁ser	-4869
▁sẹo	-4870
▁sỏi	-4871
▁tru	-4872
▁trá	-4873
▁trễ	-4874
▁vùi	-4875
▁vất	-4876
▁vẩn	-4877
▁vắt	-4878
▁vỉa	-4879
▁xen	-4880
▁xoa	-4881
▁xài	-4882
▁xào	-4883
▁xót	-4884
▁xộn	-4885
▁ôtô	-4886
▁Đan	-4887
▁Đom	-4888
▁Đài	-4889
▁Đưa	-4890
▁đan	-4891
▁đắm	-4892
▁đặn	-4893
▁đồn	-4894
▁Ảnh	-4895
ahidi	-4896
eting	-4897
hoven	-4898
insky	-4899
lashy	-4900
lying	-4901
oshop	-4902
oster	-4903
riend	-4904
▁1100	-4905
▁3000	-4906
▁7000	-4907
▁Beet	-4908
▁Bell	-4909
▁Brah	-4910
▁Carl	-4911
▁Chơi	-4912
▁Clay	-4913
▁Cong	-4914
▁Cuba	-4915
▁Cười	-4916
▁Diet	-4917
▁Diễn	-4918
▁Doha	-4919
▁Doug	-4920
▁Dùng	-4921
▁Econ	-4922
▁Edin	-4923
▁Evan	-4924
▁Ford	-4925
▁Gian	-4926
▁Giao	-4927
▁Giữa	-4928
▁Hind	-4929
▁Hằng	-4930
▁Jose	-4931
▁Juan	-4932
▁Karl	-4933
▁Kate	-4934
▁Kent	-4935
▁Khan	-4936
▁Kông	-4937
▁Linh	-4938
▁Luôn	-4939
▁Lắng	-4940
▁Lịch	-4941
▁Maya	-4942
▁Mill	-4943
▁Nano	-4944
▁News	-4945
▁Ngón	-4946
▁Nhóm	-4947
▁Nhạc	-4948
▁Nhịp	-4949
▁Nich	-4950
▁Nico	-4951
▁OECD	-4952
▁Odys	-4953
▁Phim	-4954
▁Phot	-4955
▁Phục	-4956
▁Robb	-4957
▁Rock	-4958
▁Rome	-4959
▁Romo	-4960
▁Rory	-4961
▁Russ	-4962
▁Ryan	-4963
▁Schw	-4964
▁Sách	-4965
▁Tháp	-4966
▁Thôi	-4967
▁Thấy	-4968
▁Thần	-4969
▁Toán	-4970
▁Tuần	-4971
▁Tổng	-4972
▁Vùng	-4973
▁Wall	-4974
▁Well	-4975
▁bazơ	-4976
▁beep	-4977
▁bênh	-4978
▁bướu	-4979
▁bỗng	-4980
▁chèn	-4981
▁chải	-4982
▁copy	-4983
▁cúng	-4984
▁cống	-4985
▁dâng	-4986
▁giàn	-4987
▁giầu	-4988
▁găng	-4989
▁hiền	-4990
▁hăng	-4991
▁khép	-4992
▁lung	-4993
▁luân	-4994
▁láng	-4995
▁lúng	-4996
▁mánh	-4997
▁móng	-4998
▁ngấm	-4999
▁ngẫm	-5000
▁ngời	-5001
▁ngứa	-5002
▁nhoi	-5003
▁nhét	-5004
▁nhím	-5005
▁nhại	-5006
▁nhấc	-5007
▁nhện	-5008
▁nhục	-5009
▁nhức	-5010
▁phao	-5011
▁phun	-5012
▁phẫn	-5013
▁quẩn	-5014
▁rãnh	-5015
▁sườn	-5016
▁thây	-5017
▁thạc	-5018
▁thản	-5019
▁thảy	-5020
▁thỉu	-5021
▁trâu	-5022
▁trèo	-5023
▁trói	-5024
▁trút	-5025
▁trọt	-5026
▁tống	-5027
▁vuốt	-5028
▁vành	-5029
▁xông	-5030
▁Đang	-5031
▁Đánh	-5032
▁Đứng	-5033
▁đinh	-5034
▁điếc	-5035
▁đươc	-5036
Speech	-5037
elling	-5038
entina	-5039
etroit	-5040
manuel	-5041
▁1900.	-5042
▁2009,	-5043
▁3,000	-5044
▁Agnes	-5045
▁Alpha	-5046
▁Billy	-5047
▁Casey	-5048
▁Cyrus	-5049
▁Essex	-5050
▁Fibon	-5051
▁Harry	-5052
▁Jamie	-5053
▁Jerry	-5054
▁Julia	-5055
▁Kelly	-5056
▁Khách	-5057
▁Leone	-5058
▁Lewis	-5059
▁Luria	-5060
▁Mario	-5061
▁Matth	-5062
▁Nhanh	-5063
▁North	-5064
▁Palin	-5065
▁Peter	-5066
▁Phiên	-5067
▁Phong	-5068
▁Phóng	-5069
▁Plato	-5070
▁Prosp	-5071
▁Qatar	-5072
▁Quyền	-5073
▁Radio	-5074
▁Riley	-5075
▁Skype	-5076
▁Thuật	-5077
▁Titus	-5078
▁Tokyo	-5079
▁Tranh	-5080
▁Tránh	-5081
▁Video	-5082
▁Vương	-5083
▁Weibo	-5084
▁chiên	-5085
▁devil	-5086
▁duyên	-5087
▁giông	-5088
▁khinh	-5089
▁khiết	-5090
▁khiếu	-5091
▁loãng	-5092
▁metan	-5093
▁ngoạn	-5094
▁phiến	-5095
▁phiện	-5096
▁phông	-5097
▁suyễn	-5098
▁thừng	-5099
▁trinh	-5100
▁triệt	-5101
▁trừng	-5102
awesome	-5103
eromone	-5104
ventist	-5105
▁50,000	-5106
▁Batiuk	-5107
▁Chuyển	-5108
▁Chương	-5109
▁Darwin	-5110
▁Edward	-5111
▁Kibera	-5112
▁Murray	-5113
▁Nathan	-5114
▁Nation	-5115
▁Newton	-5116
▁Nikola	-5117
▁Oliver	-5118
▁Philip	-5119
▁Sahara	-5120
▁Sierra	-5121
▁Stalin	-5122
▁Stefan	-5123
▁Street	-5124
▁Thuyết	-5125
▁Thương	-5126
▁Wright	-5127
▁Zipcar	-5128
▁choàng	-5129
▁chuộng	-5130
▁electr	-5131
▁nghiền	-5132
▁nhượng	-5133
▁trương	-5134
▁Atlanta	-5135
▁Charlie	-5136
▁Detroit	-5137
▁Jackson	-5138
▁Johnson	-5139
▁Kuznets	-5140
▁Silicon	-5141
▁Ukraine	-5142
▁YouTube	-5143
▁ammonia	-5144
▁silicon	-5145
▁Emmanuel	-5146
▁Odysseus	-5147
▁Ushahidi	-5148
▁Adventist	-5149
▁Beethoven	-5150
▁Broadmoor	-5151
▁Christoph	-5152
▁Edinburgh	-5153
▁Fibonacci	-5154
▁Photoshop	-5155
▁pheromone	-5156
▁FreeSpeech	-5157
-4	-5158
AN	-5159
An	-5160
BM	-5161
Bà	-5162
Bộ	-5163
CA	-5164
EA	-5165
EF	-5166
LA	-5167
Li	-5168
].	-5169
bi	-5170
ds	-5171
ga	-5172
gg	-5173
hr	-5174
họ	-5175
ja	-5176
ks	-5177
ns	-5178
nô	-5179
ps	-5180
pu	-5181
sw	-5182
ui	-5183
xơ	-5184
zo	-5185
zu	-5186
Ăn	-5187
đi	-5188
ĩu	-5189
ốp	-5190
Ổn	-5191
▁á	-5192
▁í	-5193
▁ơ	-5194
▁ỉ	-5195
▁Ủ	-5196
▁Ứ	-5197
100	-5198
Aye	-5199
BS	-5200
Cảm	-5201
Don	-5202
Giờ	-5203
IPA	-5204
IPP	-5205
KEA	-5206
Khi	-5207
Kho	-5208
Mày	-5209
Mọi	-5210
Như	-5211
Nào	-5212
RIC	-5213
Sắp	-5214
Tun	-5215
aii	-5216
ait	-5217
ary	-5218
ava	-5219
aze	-5220
bao	-5221
bin	-5222
bor	-5223
bot	-5224
bre	-5225
bạn	-5226
cer	-5227
com	-5228
ead	-5229
eal	-5230
edy	-5231
een	-5232
enh	-5233
etc	-5234
hay	-5235
hir	-5236
his	-5237
hrv	-5238
iba	-5239
ibi	-5240
ide	-5241
ieu	-5242
iki	-5243
ily	-5244
inn	-5245
int	-5246
ken	-5247
kes	-5248
kim	-5249
lad	-5250
let	-5251
lev	-5252
lia	-5253
lut	-5254
mit	-5255
mét	-5256
nan	-5257
nia	-5258
obe	-5259
oby	-5260
ocr	-5261
ogy	-5262
olm	-5263
oly	-5264
ops	-5265
ora	-5266
ows	-5267
ral	-5268
rin	-5269
ryn	-5270
sul	-5271
tar	-5272
tos	-5273
trở	-5274
tất	-5275
ueg	-5276
ula	-5277
unk	-5278
urk	-5279
ute	-5280
vin	-5281
xar	-5282
xon	-5283
yel	-5284
yle	-5285
yte	-5286
Đưa	-5287
Đợi	-5288
ươu	-5289
ượm	-5290
ềng	-5291
ệch	-5292
▁""	-5293
▁"-	-5294
▁"4	-5295
▁"]	-5296
▁34	-5297
▁41	-5298
▁42	-5299
▁4:	-5300
▁51	-5301
▁72	-5302
▁76	-5303
▁77	-5304
▁8,	-5305
▁82	-5306
▁89	-5307
▁93	-5308
▁97	-5309
▁98	-5310
▁9:	-5311
▁AC	-5312
▁Ah	-5313
▁BK	-5314
▁BR	-5315
▁Bu	-5316
▁Cu	-5317
▁DD	-5318
▁DE	-5319
▁DJ	-5320
▁De	-5321
▁FN	-5322
▁Fe	-5323
▁Gô	-5324
▁HS	-5325
▁IM	-5326
▁Ig	-5327
▁JE	-5328
▁Kr	-5329
▁Kế	-5330
▁LH	-5331
▁Li	-5332
▁MR	-5333
▁MW	-5334
▁Mw	-5335
▁Mở	-5336
▁NG	-5337
▁Ni	-5338
▁Om	-5339
▁Ow	-5340
▁PC	-5341
▁RG	-5342
▁SB	-5343
▁SK	-5344
▁SM	-5345
▁SO	-5346
▁SS	-5347
▁Se	-5348
▁Sư	-5349
▁TT	-5350
▁Ti	-5351
▁Tử	-5352
▁Uh	-5353
▁Up	-5354
▁Vỗ	-5355
▁Wi	-5356
▁Wy	-5357
▁XL	-5358
▁Xô	-5359
▁Ze	-5360
▁["	-5361
▁ah	-5362
▁be	-5363
▁bá	-5364
▁bệ	-5365
▁bỉ	-5366
▁bồ	-5367
▁cl	-5368
▁dỡ	-5369
▁eB	-5370
▁er	-5371
▁hở	-5372
▁kg	-5373
▁kệ	-5374
▁lô	-5375
▁lư	-5376
▁lẹ	-5377
▁lọ	-5378
▁nỉ	-5379
▁of	-5380
▁oà	-5381
▁rà	-5382
▁rò	-5383
▁rộ	-5384
▁rỡ	-5385
▁sò	-5386
▁tý	-5387
▁tạ	-5388
▁ve	-5389
▁vv	-5390
▁vể	-5391
▁xơ	-5392
▁xổ	-5393
▁xở	-5394
▁Án	-5395
▁Ăn	-5396
▁Đế	-5397
▁Đề	-5398
▁đờ	-5399
▁ầm	-5400
▁ẩm	-5401
▁ắp	-5402
▁Ổn	-5403
,...	-5404
:...	-5405
Công	-5406
Liệu	-5407
Okay	-5408
Phải	-5409
Talk	-5410
Thôi	-5411
Thời	-5412
Trời	-5413
Yeah	-5414
agas	-5415
agme	-5416
ales	-5417
andw	-5418
anth	-5419
ants	-5420
arak	-5421
arin	-5422
aron	-5423
aser	-5424
atan	-5425
ayla	-5426
ayne	-5427
bach	-5428
cast	-5429
cher	-5430
cola	-5431
egal	-5432
egas	-5433
ehry	-5434
elig	-5435
elli	-5436
enix	-5437
esus	-5438
gers	-5439
gram	-5440
hiện	-5441
icut	-5442
iego	-5443
igan	-5444
illa	-5445
imét	-5446
inci	-5447
ises	-5448
ites	-5449
meop	-5450
nett	-5451
ngay	-5452
odka	-5453
ohen	-5454
olin	-5455
olph	-5456
orio	-5457
othy	-5458
ower	-5459
phan	-5460
phen	-5461
race	-5462
rain	-5463
rich	-5464
rick	-5465
ropy	-5466
sson	-5467
stan	-5468
trol	-5469
ubai	-5470
ucky	-5471
unis	-5472
wick	-5473
xter	-5474
zone	-5475
▁1.6	-5476
▁1.7	-5477
▁11,	-5478
▁110	-5479
▁120	-5480
▁130	-5481
▁185	-5482
▁186	-5483
▁19.	-5484
▁190	-5485
▁1⁄2	-5486
▁2,5	-5487
▁21.	-5488
▁450	-5489
▁99.	-5490
▁Ach	-5491
▁Ail	-5492
▁Alz	-5493
▁Arg	-5494
▁Art	-5495
▁Ash	-5496
▁Aur	-5497
▁Bil	-5498
▁Bút	-5499
▁Bơi	-5500
▁Bắn	-5501
▁Cau	-5502
▁Chả	-5503
▁Chỗ	-5504
▁Chứ	-5505
▁Cli	-5506
▁Clo	-5507
▁Com	-5508
▁Cor	-5509
▁Cầu	-5510
▁Dai	-5511
▁Der	-5512
▁Des	-5513
▁Dol	-5514
▁Dun	-5515
▁Dần	-5516
▁Dẫu	-5517
▁Fan	-5518
▁Fer	-5519
▁Fox	-5520
▁Ful	-5521
▁Gam	-5522
▁Gen	-5523
▁Gri	-5524
▁Gro	-5525
▁Hab	-5526
▁Hub	-5527
▁Hud	-5528
▁Hạt	-5529
▁IBM	-5530
▁Ind	-5531
▁Jus	-5532
▁Kap	-5533
▁Kat	-5534
▁Ker	-5535
▁Kil	-5536
▁Kle	-5537
▁Kur	-5538
▁LED	-5539
▁Log	-5540
▁Luc	-5541
▁Lập	-5542
▁Lối	-5543
▁Lợi	-5544
▁MAS	-5545
▁MBA	-5546
▁Mas	-5547
▁McC	-5548
▁Mub	-5549
▁Mày	-5550
▁Môn	-5551
▁Mùa	-5552
▁Mưa	-5553
▁Mật	-5554
▁Mắt	-5555
▁Mộc	-5556
▁Nhĩ	-5557
▁Nhớ	-5558
▁Nội	-5559
▁Nửa	-5560
▁Off	-5561
▁Ola	-5562
▁Ooh	-5563
▁Pho	-5564
▁Phô	-5565
▁Raj	-5566
▁Ram	-5567
▁Rau	-5568
▁Reu	-5569
▁Rid	-5570
▁Row	-5571
▁Rup	-5572
▁SOL	-5573
▁Seb	-5574
▁Sil	-5575
▁Smo	-5576
▁Sol	-5577
▁Spr	-5578
▁Sri	-5579
▁Str	-5580
▁Sẵn	-5581
▁TMS	-5582
▁Taj	-5583
▁Ted	-5584
▁Thể	-5585
▁Tib	-5586
▁Trị	-5587
▁Tám	-5588
▁Tât	-5589
▁Vai	-5590
▁Val	-5591
▁Vel	-5592
▁Ver	-5593
▁Woo	-5594
▁Xét	-5595
▁Zam	-5596
▁bal	-5597
▁bén	-5598
▁bón	-5599
▁bóp	-5600
▁bôi	-5601
▁búa	-5602
▁bạt	-5603
▁bấp	-5604
▁bẩm	-5605
▁bến	-5606
▁bịt	-5607
▁bọt	-5608
▁cai	-5609
▁cuả	-5610
▁cào	-5611
▁căm	-5612
▁cẩm	-5613
▁cọc	-5614
▁cỏi	-5615
▁cửu	-5616
▁dào	-5617
▁dìm	-5618
▁dẫm	-5619
▁dẫu	-5620
▁dồi	-5621
▁dội	-5622
▁ent	-5623
▁for	-5624
▁fre	-5625
▁gay	-5626
▁ghề	-5627
▁goá	-5628
▁gân	-5629
▁gầy	-5630
▁gốm	-5631
▁hao	-5632
▁huh	-5633
▁hàu	-5634
▁háo	-5635
▁hèn	-5636
▁hít	-5637
▁hòm	-5638
▁hổn	-5639
▁hớt	-5640
▁hức	-5641
▁ion	-5642
▁khố	-5643
▁kền	-5644
▁loà	-5645
▁lìa	-5646
▁lót	-5647
▁lầy	-5648
▁lậu	-5649
▁lụt	-5650
▁lứa	-5651
▁mác	-5652
▁mộc	-5653
▁ngơ	-5654
▁ngả	-5655
▁nhi	-5656
▁nhì	-5657
▁nóc	-5658
▁nấp	-5659
▁nến	-5660
▁pop	-5661
▁rao	-5662
▁rám	-5663
▁rùa	-5664
▁rẩy	-5665
▁rợn	-5666
▁sen	-5667
▁sên	-5668
▁sạc	-5669
▁sầm	-5670
▁sập	-5671
▁sếp	-5672
▁tam	-5673
▁tem	-5674
▁thự	-5675
▁tic	-5676
▁trú	-5677
▁trỏ	-5678
▁trớ	-5679
▁tua	-5680
▁túm	-5681
▁tĩu	-5682
▁tấu	-5683
▁tợn	-5684
▁tụt	-5685
▁tựu	-5686
▁vôi	-5687
▁vạn	-5688
▁vầy	-5689
▁vệt	-5690
▁xén	-5691
▁xít	-5692
▁xốp	-5693
▁Đôn	-5694
▁Đấu	-5695
▁Đặt	-5696
▁Đổi	-5697
▁Độc	-5698
▁Đội	-5699
▁đút	-5700
▁đạm	-5701
▁đầm	-5702
▁đần	-5703
▁đẫn	-5704
▁đậy	-5705
▁đắp	-5706
▁ươm	-5707
▁ướt	-5708
▁Ứng	-5709
,000.	-5710
Chẳng	-5711
Tiếng	-5712
Tunes	-5713
ahaha	-5714
alaam	-5715
allon	-5716
andro	-5717
anium	-5718
ansen	-5719
chiến	-5720
ebrew	-5721
efoot	-5722
eland	-5723
ering	-5724
ersey	-5725
etown	-5726
ilton	-5727
inawa	-5728
itiba	-5729
ixote	-5730
nhưng	-5731
olita	-5732
ordon	-5733
othic	-5734
phere	-5735
press	-5736
sulin	-5737
terey	-5738
thony	-5739
ureka	-5740
urtis	-5741
xaren	-5742
yelet	-5743
▁1950	-5744
▁1960	-5745
▁2007	-5746
▁2050	-5747
▁4000	-5748
▁8000	-5749
▁BRIC	-5750
▁Bali	-5751
▁Ball	-5752
▁Beau	-5753
▁Bern	-5754
▁Biết	-5755
▁Bolt	-5756
▁Borg	-5757
▁Bren	-5758
▁Brit	-5759
▁Bỗng	-5760
▁Cape	-5761
▁Carr	-5762
▁Chin	-5763
▁Chọn	-5764
▁Chữa	-5765
▁Clev	-5766
▁Coch	-5767
▁Corn	-5768
▁Cruz	-5769
▁Cuốn	-5770
▁Cánh	-5771
▁Danh	-5772
▁Dean	-5773
▁Dian	-5774
▁Dick	-5775
▁Dust	-5776
▁Dừng	-5777
▁East	-5778
▁Forr	-5779
▁Fred	-5780
▁Fren	-5781
▁Giúp	-5782
▁Giấc	-5783
▁Hack	-5784
▁Hang	-5785
▁Hong	-5786
▁Hoạt	-5787
▁Huck	-5788
▁IKEA	-5789
▁Jaze	-5790
▁KIPP	-5791
▁Khal	-5792
▁Khối	-5793
▁Kiến	-5794
▁Kris	-5795
▁Lake	-5796
▁List	-5797
▁Lock	-5798
▁Luân	-5799
▁Mang	-5800
▁Mard	-5801
▁Mary	-5802
▁Mass	-5803
▁Maur	-5804
▁McCh	-5805
▁Minh	-5806
▁More	-5807
▁Muốn	-5808
▁Mười	-5809
▁Mạng	-5810
▁Nath	-5811
▁Nauy	-5812
▁Neil	-5813
▁Nike	-5814
▁Ohio	-5815
▁PIPA	-5816
▁Phấn	-5817
▁Phẩm	-5818
▁Pier	-5819
▁Sang	-5820
▁Sean	-5821
▁Serg	-5822
▁Sinc	-5823
▁Socr	-5824
▁Soph	-5825
▁Suốt	-5826
▁Súng	-5827
▁Sống	-5828
▁Talk	-5829
▁Thảo	-5830
▁Tinh	-5831
▁Tiên	-5832
▁Tiết	-5833
▁Toby	-5834
▁Town	-5835
▁Troy	-5836
▁Trại	-5837
▁Trần	-5838
▁Tạng	-5839
▁Viết	-5840
▁Vịnh	-5841
▁Wald	-5842
▁Yami	-5843
▁amen	-5844
▁axít	-5845
▁buồm	-5846
▁bàng	-5847
▁báng	-5848
▁chen	-5849
▁chui	-5850
▁chòi	-5851
▁chói	-5852
▁chạp	-5853
▁chật	-5854
▁chốn	-5855
▁chổi	-5856
▁chợt	-5857
▁cưỡi	-5858
▁cảng	-5859
▁dang	-5860
▁diễu	-5861
▁duỗi	-5862
▁dẳng	-5863
▁euro	-5864
▁gieo	-5865
▁giun	-5866
▁gram	-5867
▁gàng	-5868
▁gạch	-5869
▁heli	-5870
▁hinh	-5871
▁hiên	-5872
▁hưng	-5873
▁hươu	-5874
▁iPad	-5875
▁khoe	-5876
▁khốc	-5877
▁kiềm	-5878
▁kiều	-5879
▁lanh	-5880
▁liễu	-5881
▁lình	-5882
▁lười	-5883
▁lửng	-5884
▁mark	-5885
▁mili	-5886
▁mông	-5887
▁măng	-5888
▁nang	-5889
▁ngáy	-5890
▁ngất	-5891
▁ngắt	-5892
▁ngột	-5893
▁ngợp	-5894
▁nhoà	-5895
▁nhút	-5896
▁nhọc	-5897
▁nick	-5898
▁nuối	-5899
▁phàn	-5900
▁quầy	-5901
▁rong	-5902
▁rupi	-5903
▁rách	-5904
▁ròng	-5905
▁rặng	-5906
▁rồng	-5907
▁scan	-5908
▁suôn	-5909
▁thuở	-5910
▁thèm	-5911
▁thòi	-5912
▁thối	-5913
▁thốn	-5914
▁trơn	-5915
▁táng	-5916
▁tùng	-5917
▁tưới	-5918
▁tịch	-5919
▁viền	-5920
▁whis	-5921
▁xuẩn	-5922
▁Đàng	-5923
▁Đóng	-5924
▁điểu	-5925
▁đước	-5926
▁đắng	-5927
atcher	-5928
castle	-5929
colate	-5930
enberg	-5931
heimer	-5932
hrvold	-5933
rosten	-5934
rystal	-5935
weeney	-5936
▁10000	-5937
▁1950.	-5938
▁1960,	-5939
▁1970,	-5940
▁1976.	-5941
▁1990,	-5942
▁1999.	-5943
▁2.000	-5944
▁2000.	-5945
▁2002,	-5946
▁2003.	-5947
▁2004.	-5948
▁2010.	-5949
▁2020.	-5950
▁2050.	-5951
▁4.000	-5952
▁Aaron	-5953
▁Anton	-5954
▁Barry	-5955
▁Bayes	-5956
▁Beach	-5957
▁Brand	-5958
▁Byrne	-5959
▁Caled	-5960
▁Chủng	-5961
▁Chứng	-5962
▁Congo	-5963
▁Diego	-5964
▁Doyle	-5965
▁Drori	-5966
▁Dubai	-5967
▁Exxon	-5968
▁Gayla	-5969
▁Gehry	-5970
▁Gever	-5971
▁Hindu	-5972
▁Hoàng	-5973
▁Jesse	-5974
▁Jesus	-5975
▁Jihad	-5976
▁Jimmy	-5977
▁Kamen	-5978
▁Karen	-5979
▁Larry	-5980
▁Latin	-5981
▁Lotto	-5982
▁Mahab	-5983
▁Marla	-5984
▁Marsh	-5985
▁Meyer	-5986
▁Miệng	-5987
▁Moore	-5988
▁Nghèo	-5989
▁Ngoại	-5990
▁Ngành	-5991
▁Nhiệt	-5992
▁Owens	-5993
▁Patel	-5994
▁Perry	-5995
▁Quyết	-5996
▁Quyển	-5997
▁Quảng	-5998
▁Rossy	-5999
▁Sagme	-6000
▁Saudi	-6001
▁Selig	-6002
▁Thuốc	-6003
▁Thách	-6004
▁Tháng	-6005
▁Times	-6006
▁Tunis	-6007
▁Tuyên	-6008
▁Tuyến	-6009
▁Tuyết	-6010
▁Vegas	-6011
▁Vinci	-6012
▁Vodka	-6013
▁White	-6014
▁Xương	-6015
▁banjo	-6016
▁chang	-6017
▁chinh	-6018
▁chiêm	-6019
▁chuối	-6020
▁chưng	-6021
▁chệch	-6022
▁click	-6023
▁coban	-6024
▁giáng	-6025
▁giềng	-6026
▁hoành	-6027
▁khuấy	-6028
▁khánh	-6029
▁loang	-6030
▁micro	-6031
▁miles	-6032
▁nguội	-6033
▁nhúng	-6034
▁phích	-6035
▁quẳng	-6036
▁sandw	-6037
▁spagh	-6038
▁suông	-6039
▁sương	-6040
▁thali	-6041
▁token	-6042
▁triều	-6043
▁trũng	-6044
ecticut	-6045
enhagen	-6046
ersburg	-6047
graphic	-6048
ingsuit	-6049
ippines	-6050
usharam	-6051
▁12.000	-6052
▁50.000	-6053
▁Albert	-6054
▁Archie	-6055
▁Ayelet	-6056
▁Baloch	-6057
▁Baxter	-6058
▁Bosnia	-6059
▁Brooks	-6060
▁Canyon	-6061
▁Curtis	-6062
▁Esther	-6063
▁Fabian	-6064
▁Gordon	-6065
▁Harris	-6066
▁Havard	-6067
▁Hawaii	-6068
▁Ixaren	-6069
▁Jansen	-6070
▁Jeremy	-6071
▁Jersey	-6072
▁Johnny	-6073
▁Jordan	-6074
▁Joseph	-6075
▁Justin	-6076
▁Kansas	-6077
▁Lauren	-6078
▁Monica	-6079
▁Nghịch	-6080
▁Osorio	-6081
▁Rotter	-6082
▁Salaam	-6083
▁Samuel	-6084
▁Sheryl	-6085
▁Silver	-6086
▁Truyện	-6087
▁Tulley	-6088
▁Viking	-6089
▁Whites	-6090
▁Zambia	-6091
▁iTunes	-6092
▁khoang	-6093
▁khuếch	-6094
▁nguyền	-6095
▁online	-6096
▁thiêng	-6097
meopathy	-6098
▁100.000	-6099
▁200,000	-6100
▁Anthony	-6101
▁Carolyn	-6102
▁Central	-6103
▁Freeman	-6104
▁Jazeera	-6105
▁Jordans	-6106
▁Mahmoud	-6107
▁Mubarak	-6108
▁Neander	-6109
▁Oakland	-6110
▁Okinawa	-6111
▁Quixote	-6112
▁Robbins	-6113
▁Russell	-6114
▁Senegal	-6115
▁Stanley	-6116
▁Stephen	-6117
▁Sweeney	-6118
▁TEDTalk	-6119
▁entropy	-6120
▁whiskey	-6121
▁Barefoot	-6122
▁Caroline	-6123
▁Cochrane	-6124
▁Colombia	-6125
▁Curitiba	-6126
▁Jennifer	-6127
▁Kentucky	-6128
▁Matthieu	-6129
▁Michigan	-6130
▁Monterey	-6131
▁Myhrvold	-6132
▁National	-6133
▁Nicholas	-6134
▁Olympics	-6135
▁Phillips	-6136
▁Prospera	-6137
▁Randolph	-6138
▁Scotland	-6139
▁Seligman	-6140
▁Sinclair	-6141
▁Thatcher	-6142
▁Whitacre	-6143
▁electron	-6144
▁internet	-6145
▁sandwich	-6146
▁Alexander	-6147
▁Alzheimer	-6148
▁Argentina	-6149
▁Greenland	-6150
▁Newcastle	-6151
▁Rotterdam	-6152
▁Tasmanian	-6153
▁androsten	-6154
▁marketing	-6155
▁spaghetti	-6156
▁Copenhagen	-6157
▁Geographic	-6158
▁McChrystal	-6159
▁Parusharam	-6160
▁Petersburg	-6161
▁Sagmeister	-6162
▁Balochistan	-6163
▁Christopher	-6164
▁Connecticut	-6165
▁Neanderthal	-6166
▁Philippines	-6167
ln	-6168
▁ừ	-6169
42.	-6170
81.	-6171
ARw	-6172
Lee	-6173
Nhà	-6174
PTC	-6175
PTH	-6176
Pix	-6177
Thứ	-6178
Tụi	-6179
app	-6180
asa	-6181
avi	-6182
aza	-6183
bab	-6184
bum	-6185
cot	-6186
dez	-6187
die	-6188
edi	-6189
ega	-6190
eur	-6191
eyn	-6192
fli	-6193
flo	-6194
fur	-6195
hut	-6196
iab	-6197
ifi	-6198
ign	-6199
!!	-6200
-2	-6201
To	-6202
ũa	-6203
▁ờ	-6204
Lạy	-6205
Quê	-6206
che	-6207
crô	-6208
hhh	-6209
ili	-6210
ior	-6211
ive	-6212
iêc	-6213
jad	-6214
kum	-6215
lap	-6216
las	-6217
lob	-6218
màu	-6219
neg	-6220
nus	-6221
off	-6222
oga	-6223
oir	-6224
oln	-6225
ols	-6226
olv	-6227
oma	-6228
ool	-6229
pol	-6230
qúi	-6231
rah	-6232
rey	-6233
rez	-6234
ria	-6235
riz	-6236
roe	-6237
sha	-6238
shm	-6239
sus	-6240
syl	-6241
thế	-6242
tie	-6243
tre	-6244
tst	-6245
uby	-6246
udy	-6247
ulu	-6248
ulz	-6249
une	-6250
uni	-6251
urn	-6252
ury	-6253
use	-6254
uza	-6255
vik	-6256
www	-6257
zac	-6258
đến	-6259
▁52	-6260
▁63	-6261
▁6:	-6262
▁78	-6263
▁91	-6264
▁Au	-6265
▁CS	-6266
▁Cà	-6267
▁Cụ	-6268
▁Dữ	-6269
▁FB	-6270
▁Mã	-6271
▁Nô	-6272
▁Sa	-6273
▁TE	-6274
▁UF	-6275
▁Vỏ	-6276
▁XI	-6277
▁XK	-6278
▁Xu	-6279
▁Xê	-6280
▁Zh	-6281
▁as	-6282
▁bo	-6283
▁cm	-6284
▁há	-6285
▁it	-6286
▁na	-6287
▁nu	-6288
▁sé	-6289
▁sỉ	-6290
▁sỡ	-6291
▁ur	-6292
▁uý	-6293
▁uỷ	-6294
▁võ	-6295
▁xỏ	-6296
▁ze	-6297
▁ùn	-6298
▁đễ	-6299
-3	-6300
0;	-6301
AT	-6302
Ab	-6303
Al	-6304
DG	-6305
DR	-6306
ER	-6307
HE	-6308
IS	-6309
ML	-6310
UC	-6311
XO	-6312
dt	-6313
ji	-6314
wa	-6315
▁(	-6316
Can	-6317
OXO	-6318
atz	-6319
bốc	-6320
eon	-6321
hãy	-6322
uce	-6323
▁JM	-6324
▁lị	-6325
▁tở	-6326
▁vơ	-6327
▁อย	-6328
▁อร	-6329
▁ỉn	-6330
▁ỏi	-6331
Amer	-6332
Carm	-6333
Chưa	-6334
Giác	-6335
Giúp	-6336
Greg	-6337
Hoạt	-6338
Liab	-6339
Mann	-6340
Nghệ	-6341
Ngôi	-6342
Nhìn	-6343
PTCH	-6344
PTHX	-6345
Shhh	-6346
Thực	-6347
Tiến	-6348
abad	-6349
abel	-6350
able	-6351
abra	-6352
acey	-6353
adad	-6354
adah	-6355
adbe	-6356
agan	-6357
agos	-6358
ague	-6359
ahoo	-6360
akis	-6361
alak	-6362
alie	-6363
alph	-6364
ambi	-6365
anna	-6366
anol	-6367
arez	-6368
aroo	-6369
artu	-6370
arty	-6371
artz	-6372
asel	-6373
asit	-6374
aska	-6375
atad	-6376
atma	-6377
atts	-6378
bane	-6379
bard	-6380
bran	-6381
burn	-6382
deen	-6383
doch	-6384
eaaw	-6385
ebec	-6386
eber	-6387
ehru	-6388
ella	-6389
eson	-6390
esta	-6391
etty	-6392
exas	-6393
ffet	-6394
flix	-6395
gill	-6396
hall	-6397
head	-6398
hese	-6399
1:	-6400
Ba	-6401
Là	-6402
Sẽ	-6403
nt	-6404
sẽ	-6405
tơ	-6406
yg	-6407
ịt	-6408
▁=	-6409
▁่	-6410
Tây	-6411
ads	-6412
ago	-6413
apa	-6414
awi	-6415
hav	-6416
lej	-6417
máy	-6418
oko	-6419
ugh	-6420
ựơc	-6421
ỳnh	-6422
▁59	-6423
▁8:	-6424
▁94	-6425
▁Ac	-6426
▁JN	-6427
▁So	-6428
▁TS	-6429
▁bl	-6430
▁hý	-6431
▁mụ	-6432
Nhạc	-6433
Thấy	-6434
adel	-6435
alem	-6436
cũng	-6437
ewey	-6438
holm	-6439
iazz	-6440
icer	-6441
icog	-6442
icus	-6443
ides	-6444
ield	-6445
iely	-6446
ilon	-6447
imol	-6448
inek	-6449
ioux	-6450
ippi	-6451
iran	-6452
irut	-6453
isco	-6454
iser	-6455
itch	-6456
ited	-6457
itts	-6458
khắc	-6459
kinh	-6460
lass	-6461
lins	-6462
loud	-6463
loại	-6464
maer	-6465
mann	-6466
mins	-6467
nedy	-6468
neth	-6469
ockt	-6470
oger	-6471
oker	-6472
olan	-6473
oldt	-6474
olls	-6475
omen	-6476
onig	-6477
oren	-6478
orge	-6479
orow	-6480
osta	-6481
otax	-6482
otor	-6483
ouri	-6484
oveg	-6485
over	-6486
owan	-6487
oxit	-6488
phia	-6489
phần	-6490
pont	-6491
port	-6492
pson	-6493
quez	-6494
rass	-6495
ream	-6496
rett	-6497
riet	-6498
rost	-6499
,7	-6500
MG	-6501
PA	-6502
VC	-6503
kw	-6504
nd	-6505
pb	-6506
về	-6507
Đi	-6508
ệp	-6509
▁ủ	-6510
ahn	-6511
ape	-6512
bởi	-6513
ful	-6514
iêt	-6515
mới	-6516
owl	-6517
pan	-6518
tel	-6519
vis	-6520
▁Hồ	-6521
▁NO	-6522
▁VM	-6523
▁hê	-6524
▁li	-6525
▁ni	-6526
▁vồ	-6527
Trên	-6528
ally	-6529
ange	-6530
anor	-6531
ayel	-6532
chia	-6533
hiểu	-6534
idro	-6535
kwam	-6536
shmi	-6537
tafa	-6538
tech	-6539
thực	-6540
trên	-6541
tặng	-6542
uger	-6543
untu	-6544
upta	-6545
ushi	-6546
vena	-6547
vika	-6548
vind	-6549
wait	-6550
ylon	-6551
ynth	-6552
ytop	-6553
zler	-6554
đang	-6555
▁0.1	-6556
▁0.3	-6557
▁1,5	-6558
▁1.2	-6559
▁1.4	-6560
▁103	-6561
▁125	-6562
▁14,	-6563
▁15.	-6564
▁160	-6565
▁177	-6566
▁18,	-6567
▁181	-6568
▁183	-6569
▁2.0	-6570
▁2.5	-6571
▁240	-6572
▁3,5	-6573
▁3.7	-6574
▁30,	-6575
▁40,	-6576
▁430	-6577
▁480	-6578
▁550	-6579
▁60.	-6580
▁650	-6581
▁70.	-6582
▁747	-6583
▁90,	-6584
▁Ahm	-6585
▁Ahn	-6586
▁Alb	-6587
▁Ann	-6588
▁Ark	-6589
▁Ass	-6590
▁BKT	-6591
▁Bre	-6592
▁Bấy	-6593
▁Bối	-6594
▁CDC	-6595
▁CIA	-6596
▁Ces	-6597
▁Coi	-6598
▁Cta	-6599
'9	-6600
,.	-6601
66	-6602
90	-6603
:)	-6604
??	-6605
Bỏ	-6606
Cả	-6607
EG	-6608
lê	-6609
lơ	-6610
ms	-6611
mô	-6612
rs	-6613
vì	-6614
yo	-6615
Đị	-6616
Cần	-6617
Mar	-6618
Yêu	-6619
ahl	-6620
day	-6621
eta	-6622
imi	-6623
sao	-6624
tập	-6625
ứơc	-6626
▁1:	-6627
▁5,	-6628
▁GV	-6629
▁Mù	-6630
▁Pe	-6631
▁SR	-6632
▁Wu	-6633
▁lổ	-6634
▁mó	-6635
▁rơ	-6636
▁ớt	-6637
Bánh	-6638
ance	-6639
ards	-6640
ayan	-6641
hane	-6642
luid	-6643
penh	-6644
teri	-6645
uper	-6646
▁16,	-6647
▁CAD	-6648
▁Cua	-6649
▁Dem	-6650
▁Dil	-6651
▁Dra	-6652
▁Dây	-6653
▁Dựa	-6654
▁EEG	-6655
▁Est	-6656
▁Eur	-6657
▁Fai	-6658
▁Fed	-6659
▁Fri	-6660
▁Ghi	-6661
▁Gle	-6662
▁God	-6663
▁Gun	-6664
▁Góc	-6665
▁Gồm	-6666
▁Hid	-6667
▁Hit	-6668
▁Hot	-6669
▁Hum	-6670
▁Hài	-6671
▁Hàm	-6672
▁Ing	-6673
▁Jac	-6674
▁Jas	-6675
▁Kaz	-6676
▁Kos	-6677
▁Kra	-6678
▁Kun	-6679
▁Kyi	-6680
▁LHC	-6681
▁LOL	-6682
▁Las	-6683
▁Leb	-6684
▁Lil	-6685
▁Loy	-6686
▁Lyn	-6687
▁Lái	-6688
▁Lắc	-6689
▁MDG	-6690
▁Mag	-6691
▁Mai	-6692
▁Map	-6693
▁McE	-6694
▁McG	-6695
▁Mig	-6696
▁Miz	-6697
▁Mob	-6698
▁Mod	-6699
9,	-6700
?!	-6701
Am	-6702
CC	-6703
Cố	-6704
EB	-6705
IC	-6706
US	-6707
XD	-6708
ei	-6709
tw	-6710
để	-6711
ỏo	-6712
ợm	-6713
▁*	-6714
▁ả	-6715
▁Ố	-6716
aro	-6717
ars	-6718
cha	-6719
jec	-6720
nhà	-6721
với	-6722
▁"+	-6723
▁-1	-6724
▁Cổ	-6725
▁Nổ	-6726
▁at	-6727
▁mĩ	-6728
▁nể	-6729
amen	-6730
eiro	-6731
enny	-6732
jaro	-6733
mart	-6734
tình	-6735
▁80,	-6736
▁900	-6737
▁Ahh	-6738
▁Cứu	-6739
▁Hon	-6740
▁Hết	-6741
▁LXD	-6742
▁Moi	-6743
▁Mov	-6744
▁Mua	-6745
▁Mun	-6746
▁Mèo	-6747
▁Món	-6748
▁Mũi	-6749
▁Mẩu	-6750
▁NSA	-6751
▁Nổi	-6752
▁Ooo	-6753
▁Orn	-6754
▁Ost	-6755
▁PBS	-6756
▁PSA	-6757
▁PVC	-6758
▁Pac	-6759
▁Pap	-6760
▁Pou	-6761
▁Qui	-6762
▁Rap	-6763
▁Rốt	-6764
▁Sit	-6765
▁Siv	-6766
▁Sok	-6767
▁Stu	-6768
▁Suu	-6769
▁Suz	-6770
▁TTN	-6771
▁Tai	-6772
▁Tel	-6773
▁Tod	-6774
▁Tra	-6775
▁Tri	-6776
▁Tur	-6777
▁Tuỳ	-6778
▁Tâm	-6779
▁USA	-6780
▁Vac	-6781
▁Vạn	-6782
▁War	-6783
▁Wei	-6784
▁Yem	-6785
▁Yến	-6786
▁aah	-6787
▁all	-6788
▁are	-6789
▁bar	-6790
▁buc	-6791
▁bus	-6792
▁bùn	-6793
▁bải	-6794
▁bịp	-6795
▁bừa	-6796
▁chy	-6797
▁chỏ	-6798
▁chừ	-6799
Vô	-6800
ae	-6801
ừm	-6802
Bây	-6803
Lại	-6804
Man	-6805
anô	-6806
aya	-6807
ays	-6808
dul	-6809
mon	-6810
oon	-6811
orf	-6812
teo	-6813
▁Bỉ	-6814
▁Bị	-6815
▁Ca	-6816
▁GW	-6817
▁MG	-6818
▁Rô	-6819
▁Tớ	-6820
▁gt	-6821
▁hờ	-6822
▁sá	-6823
▁vò	-6824
▁xá	-6825
▁xô	-6826
▁xẻ	-6827
▁Đá	-6828
▁ĐỌ	-6829
▁ại	-6830
▁ấu	-6831
Thưa	-6832
alah	-6833
name	-6834
rina	-6835
rrrr	-6836
▁137	-6837
▁45-	-6838
▁Bật	-6839
▁Cao	-6840
▁Min	-6841
▁Nhu	-6842
▁Nấm	-6843
▁Seo	-6844
▁Tay	-6845
▁Tso	-6846
▁UFO	-6847
▁bặm	-6848
▁cua	-6849
▁cày	-6850
▁cán	-6851
▁còi	-6852
▁côi	-6853
▁cơm	-6854
▁cảu	-6855
▁cật	-6856
▁den	-6857
▁dãi	-6858
▁dậm	-6859
▁dật	-6860
▁dằn	-6861
▁dặn	-6862
▁dịu	-6863
▁etc	-6864
▁giỏ	-6865
▁giở	-6866
▁gom	-6867
▁gán	-6868
▁gãi	-6869
▁gộp	-6870
▁gợn	-6871
▁hem	-6872
▁hip	-6873
▁hoc	-6874
▁hói	-6875
▁hằn	-6876
▁hển	-6877
▁hốc	-6878
▁hời	-6879
▁khư	-6880
▁kỏo	-6881
▁lau	-6882
▁lén	-6883
▁lòi	-6884
▁lóc	-6885
▁lõm	-6886
▁lẩn	-6887
▁lẽo	-6888
▁lịm	-6889
▁man	-6890
▁mem	-6891
▁mix	-6892
▁mor	-6893
▁mút	-6894
▁nga	-6895
▁ngô	-6896
▁ngộ	-6897
▁nhô	-6898
▁noi	-6899
86	-6900
Câu	-6901
Cậu	-6902
Rồi	-6903
Sau	-6904
aga	-6905
aks	-6906
ble	-6907
bắt	-6908
chế	-6909
hầu	-6910
ofi	-6911
tim	-6912
Đâu	-6913
đầu	-6914
đổi	-6915
▁DB	-6916
▁MO	-6917
▁Rh	-6918
▁ac	-6919
▁au	-6920
▁pa	-6921
Prin	-6922
akes	-6923
anne	-6924
bằng	-6925
nick	-6926
tius	-6927
yama	-6928
▁1,4	-6929
▁Abu	-6930
▁Chờ	-6931
▁Hem	-6932
▁Hân	-6933
▁Jal	-6934
▁Kay	-6935
▁MOO	-6936
▁Mời	-6937
▁Net	-6938
▁One	-6939
▁Pau	-6940
▁Thí	-6941
▁Ton	-6942
▁Von	-6943
▁cal	-6944
▁gặm	-6945
▁hop	-6946
▁hót	-6947
▁lẫy	-6948
▁mau	-6949
▁mận	-6950
▁náu	-6951
▁nít	-6952
▁nôn	-6953
▁nĩa	-6954
▁nấc	-6955
▁nấy	-6956
▁nẹp	-6957
▁nẻo	-6958
▁nếm	-6959
▁nứt	-6960
▁oát	-6961
▁quỳ	-6962
▁qúi	-6963
▁rơm	-6964
▁rạc	-6965
▁rắm	-6966
▁rệp	-6967
▁rọc	-6968
▁rớt	-6969
▁sky	-6970
▁son	-6971
▁sút	-6972
▁sấy	-6973
▁sệt	-6974
▁sọc	-6975
▁sực	-6976
▁tao	-6977
▁thò	-6978
▁thỏ	-6979
▁toa	-6980
▁top	-6981
▁tào	-6982
▁tản	-6983
▁tết	-6984
▁tỉa	-6985
▁tịt	-6986
▁tởm	-6987
▁ven	-6988
▁von	-6989
▁vác	-6990
▁vãn	-6991
▁vóc	-6992
▁vói	-6993
▁vôn	-6994
▁vẫy	-6995
▁vắn	-6996
▁vờn	-6997
▁wee	-6998
▁xói	-6999
Dễ	-7000
ỡi	-7001
.",	-7002
800	-7003
Còn	-7004
Cấm	-7005
Dun	-7006
Sam	-7007
Vấn	-7008
aux	-7009
chứ	-7010
ech	-7011
ieg	-7012
iks	-7013
ser	-7014
▁AI	-7015
▁AT	-7016
▁Ge	-7017
▁LM	-7018
▁Lễ	-7019
▁Lệ	-7020
▁ST	-7021
▁Sv	-7022
▁Sỹ	-7023
▁is	-7024
▁át	-7025
▁ôn	-7026
Cook	-7027
dall	-7028
eind	-7029
icky	-7030
nger	-7031
nham	-7032
sống	-7033
▁Bor	-7034
▁Bữa	-7035
▁Cắt	-7036
▁Cặp	-7037
▁Gái	-7038
▁Hos	-7039
▁Hỏi	-7040
▁Jan	-7041
▁Lực	-7042
▁Men	-7043
▁Ngu	-7044
▁Ngà	-7045
▁Sat	-7046
▁Tắt	-7047
▁bít	-7048
▁củi	-7049
▁dem	-7050
▁lồi	-7051
▁mền	-7052
▁rữa	-7053
▁vứt	-7054
▁xơi	-7055
▁xẩy	-7056
▁xắn	-7057
▁xẻo	-7058
▁xỉn	-7059
▁yếm	-7060
▁Đêm	-7061
▁Đạo	-7062
▁Đảo	-7063
▁ĐỌC	-7064
▁Đọc	-7065
▁Đợi	-7066
▁đay	-7067
▁đrô	-7068
▁đãi	-7069
▁đắc	-7070
▁ưng	-7071
▁ươi	-7072
▁ổng	-7073
▁Ủng	-7074
ARwln	-7075
Chiếc	-7076
Chồng	-7077
Khoan	-7078
PTCHA	-7079
Qaeda	-7080
agall	-7081
ahili	-7082
aidan	-7083
aikum	-7084
amela	-7085
angea	-7086
aourt	-7087
arate	-7088
aster	-7089
ather	-7090
athon	-7091
atops	-7092
aurus	-7093
bread	-7094
burst	-7095
chang	-7096
ctrol	-7097
ectus	-7098
eller	-7099
BC	-7100
ểm	-7101
Bởi	-7102
Hội	-7103
Máy	-7104
Mục	-7105
bar	-7106
cle	-7107
dấu	-7108
hơn	-7109
set	-7110
▁DP	-7111
▁Dạ	-7112
▁Mũ	-7113
▁PT	-7114
▁RS	-7115
▁TG	-7116
▁ar	-7117
▁ft	-7118
▁út	-7119
Loài	-7120
iman	-7121
kley	-7122
rant	-7123
▁Bia	-7124
▁Den	-7125
▁Dãy	-7126
▁Dấu	-7127
▁Eng	-7128
▁Họp	-7129
▁Jen	-7130
▁Kia	-7131
▁Ngủ	-7132
▁Pao	-7133
▁Ren	-7134
▁Say	-7135
▁Tội	-7136
▁Via	-7137
▁Wol	-7138
▁bội	-7139
▁cằm	-7140
▁cội	-7141
▁gắt	-7142
▁hột	-7143
▁loi	-7144
▁loé	-7145
▁mẫn	-7146
▁nới	-7147
▁ráo	-7148
▁sâm	-7149
▁sục	-7150
▁váy	-7151
▁Đồi	-7152
▁đục	-7153
ellon	-7154
emala	-7155
ember	-7156
enezu	-7157
ennis	-7158
ental	-7159
ereen	-7160
erman	-7161
ernod	-7162
esley	-7163
etman	-7164
etric	-7165
euron	-7166
giông	-7167
gledy	-7168
hutan	-7169
icago	-7170
icket	-7171
indle	-7172
inson	-7173
itesh	-7174
ithia	-7175
itium	-7176
itius	-7177
itsha	-7178
izona	-7179
jahid	-7180
juana	-7181
keley	-7182
leans	-7183
lende	-7184
luten	-7185
negie	-7186
những	-7187
ocure	-7188
ology	-7189
omist	-7190
ophis	-7191
orrow	-7192
orter	-7193
othar	-7194
otics	-7195
pbell	-7196
phone	-7197
racad	-7198
rista	-7199
ts	-7200
uh	-7201
cảm	-7202
elk	-7203
els	-7204
esa	-7205
get	-7206
its	-7207
pin	-7208
rel	-7209
tic	-7210
wal	-7211
▁AM	-7212
▁Eb	-7213
▁Hỗ	-7214
▁JU	-7215
▁Jr	-7216
▁Vé	-7217
▁es	-7218
▁ốn	-7219
..."	-7220
atin	-7221
emia	-7222
issa	-7223
vươn	-7224
▁1⁄4	-7225
▁50,	-7226
▁Bán	-7227
▁Gil	-7228
▁Git	-7229
▁Gấp	-7230
▁Hob	-7231
▁Jar	-7232
▁Pha	-7233
▁Phố	-7234
▁Phủ	-7235
▁lốc	-7236
▁vét	-7237
▁vấp	-7238
▁xãy	-7239
▁xửa	-7240
ashto	-7241
casus	-7242
swana	-7243
trồng	-7244
umara	-7245
umbia	-7246
vania	-7247
xơlen	-7248
zmann	-7249
▁1858	-7250
▁1926	-7251
▁1947	-7252
▁1957	-7253
▁1966	-7254
▁1970	-7255
▁1975	-7256
▁1983	-7257
▁1986	-7258
▁1995	-7259
▁2005	-7260
▁2008	-7261
▁2200	-7262
▁Aber	-7263
▁Agra	-7264
▁Alej	-7265
▁Andy	-7266
▁Anna	-7267
▁Anne	-7268
▁Aung	-7269
▁Baba	-7270
▁Bach	-7271
▁Barc	-7272
▁Bart	-7273
▁Bass	-7274
▁Beat	-7275
▁Beck	-7276
▁Belk	-7277
▁Bios	-7278
▁Biên	-7279
▁Biển	-7280
▁Biệt	-7281
▁Bong	-7282
▁Boot	-7283
▁Bowl	-7284
▁Bris	-7285
▁Burt	-7286
▁Buổi	-7287
▁Bách	-7288
▁Bảng	-7289
▁Cass	-7290
▁Chap	-7291
▁Chim	-7292
▁Chụp	-7293
▁Chức	-7294
▁Clar	-7295
▁Coop	-7296
▁Cảng	-7297
▁Dink	-7298
▁Dozo	-7299
▁Drew	-7300
▁Durk	-7301
▁Dòng	-7302
▁Ecua	-7303
▁Eddi	-7304
▁Erik	-7305
▁FOXO	-7306
▁Fall	-7307
▁Farm	-7308
▁Feki	-7309
▁Finn	-7310
▁Flin	-7311
▁Fort	-7312
▁Gard	-7313
▁Gaza	-7314
▁Gell	-7315
▁Gene	-7316
▁Gián	-7317
▁Giảm	-7318
▁Goro	-7319
▁Greg	-7320
▁Grey	-7321
▁Guat	-7322
▁Hany	-7323
▁Hiếm	-7324
▁Hiến	-7325
▁Hiểu	-7326
▁Huhh	-7327
▁Humb	-7328
▁Hung	-7329
▁Hunt	-7330
▁Hạnh	-7331
▁Igbo	-7332
▁Irắc	-7333
▁Jill	-7334
▁Judy	-7335
▁Jung	-7336
▁Karm	-7337
▁Kath	-7338
▁Khao	-7339
▁Khái	-7340
▁Khám	-7341
▁Khúc	-7342
▁Khẩu	-7343
▁Kiều	-7344
▁Kiểm	-7345
▁Klee	-7346
▁Kobe	-7347
▁Kofi	-7348
▁Koko	-7349
▁Kong	-7350
▁Kurd	-7351
▁Lane	-7352
▁Less	-7353
▁Linc	-7354
▁Loan	-7355
▁Luis	-7356
▁Luận	-7357
▁MOOC	-7358
▁Mall	-7359
▁Mars	-7360
▁Math	-7361
▁Maui	-7362
▁Mead	-7363
▁Mies	-7364
▁Miến	-7365
▁Miễn	-7366
▁MoMA	-7367
▁Mund	-7368
▁Muỗi	-7369
▁NGHE	-7370
▁Nghề	-7371
▁Nghị	-7372
▁Ngẫu	-7373
▁Nhãn	-7374
▁Nhấn	-7375
▁Nhập	-7376
▁Nina	-7377
▁Niên	-7378
▁Noah	-7379
▁Palm	-7380
▁Patt	-7381
▁Penn	-7382
▁Phái	-7383
▁Pháo	-7384
▁Phúc	-7385
▁Play	-7386
▁Post	-7387
▁Pran	-7388
▁Prot	-7389
▁Quản	-7390
▁Rach	-7391
▁Rica	-7392
▁Rita	-7393
▁Rằng	-7394
▁Rồng	-7395
▁SOLE	-7396
▁SOPA	-7397
▁Sain	-7398
▁Salt	-7399
▁Shar	-7400
▁Shaw	-7401
▁Shir	-7402
▁Shiv	-7403
▁Show	-7404
▁Sieg	-7405
▁Siết	-7406
▁Styg	-7407
▁Sval	-7408
▁TEEB	-7409
▁Tata	-7410
▁Thạc	-7411
▁Thấu	-7412
▁Thập	-7413
▁Thịt	-7414
▁Till	-7415
▁Tiêu	-7416
▁Tiếc	-7417
▁Tiềm	-7418
▁Trầm	-7419
▁Tulu	-7420
▁Tăng	-7421
▁Tỉnh	-7422
▁USDA	-7423
▁Umar	-7424
▁Venn	-7425
▁Vent	-7426
▁Vila	-7427
▁Viễn	-7428
▁Wang	-7429
▁Webb	-7430
▁Will	-7431
▁Wolf	-7432
▁Wong	-7433
▁Xung	-7434
▁Zach	-7435
▁axit	-7436
▁balo	-7437
▁biêt	-7438
▁byte	-7439
▁bành	-7440
▁bưởi	-7441
▁bềnh	-7442
▁bồng	-7443
▁bừng	-7444
▁cafe	-7445
▁chén	-7446
▁chéo	-7447
▁chót	-7448
▁chảo	-7449
▁chần	-7450
▁chọi	-7451
▁chồm	-7452
▁chồn	-7453
▁chộp	-7454
▁code	-7455
▁coum	-7456
▁cuốc	-7457
▁còng	-7458
▁diều	-7459
▁diệp	-7460
▁foot	-7461
▁giòn	-7462
▁giầy	-7463
▁giời	-7464
▁hiếu	-7465
▁hoáy	-7466
▁hoãn	-7467
▁hãnh	-7468
▁hững	-7469
▁iPod	-7470
▁khoả	-7471
▁khét	-7472
▁kiếu	-7473
▁laze	-7474
▁loan	-7475
▁luẩn	-7476
▁lánh	-7477
▁lượm	-7478
▁lảng	-7479
▁lộng	-7480
▁muôn	-7481
▁mách	-7482
▁máng	-7483
▁ngoa	-7484
▁ngâm	-7485
▁ngóc	-7486
▁ngạt	-7487
▁ngấy	-7488
▁ngầu	-7489
▁ngọc	-7490
▁ngợm	-7491
▁nháp	-7492
▁nhât	-7493
▁nhõm	-7494
▁nhảm	-7495
▁nhằn	-7496
▁nhọn	-7497
▁nhối	-7498
▁nhốt	-7499
▁niêm	-7500
▁nong	-7501
▁nung	-7502
▁nòng	-7503
▁nấng	-7504
▁okay	-7505
▁panô	-7506
▁phai	-7507
▁phôi	-7508
▁phồn	-7509
▁quạt	-7510
▁quận	-7511
▁ráng	-7512
▁rảnh	-7513
▁show	-7514
▁siết	-7515
▁sofa	-7516
▁solo	-7517
▁sừng	-7518
▁terr	-7519
▁test	-7520
▁they	-7521
▁thoi	-7522
▁thuỳ	-7523
▁thán	-7524
▁thât	-7525
▁thét	-7526
▁thêu	-7527
▁thục	-7528
▁toái	-7529
▁trìu	-7530
▁trộm	-7531
▁trợn	-7532
▁tuôn	-7533
▁tuối	-7534
▁tành	-7535
▁vách	-7536
▁văng	-7537
▁vượn	-7538
▁vụng	-7539
▁xoáy	-7540
▁xuôi	-7541
▁xách	-7542
▁yoga	-7543
▁Điệu	-7544
▁Đằng	-7545
▁đung	-7546
▁đùng	-7547
▁đười	-7548
▁đấng	-7549
▁đụng	-7550
▁đựơc	-7551
Carmen	-7552
Cookie	-7553
Donald	-7554
Lolita	-7555
Prince	-7556
acking	-7557
andani	-7558
annica	-7559
apagos	-7560
assage	-7561
astian	-7562
chuyện	-7563
cissus	-7564
eaawww	-7565
ebecca	-7566
erican	-7567
erside	-7568
estown	-7569
eureka	-7570
exanol	-7571
friend	-7572
icogra	-7573
ischer	-7574
kwamba	-7575
ladesh	-7576
lahoma	-7577
nesota	-7578
ollock	-7579
onigal	-7580
ooklyn	-7581
opatch	-7582
owanus	-7583
presso	-7584
rainec	-7585
roblog	-7586
timore	-7587
tstone	-7588
ubuntu	-7589
udwick	-7590
usalem	-7591
waites	-7592
ynthia	-7593
▁1,000	-7594
▁1,100	-7595
▁1,500	-7596
▁1.500	-7597
▁1.600	-7598
▁1900,	-7599
▁1918,	-7600
▁1949.	-7601
▁1968.	-7602
▁1969.	-7603
▁1975,	-7604
▁1984.	-7605
▁1986.	-7606
▁1990.	-7607
▁1992.	-7608
▁1995,	-7609
▁2,200	-7610
▁2001,	-7611
▁2001.	-7612
▁2002.	-7613
▁2003,	-7614
▁2004,	-7615
▁2005.	-7616
▁2006.	-7617
▁2007,	-7618
▁2007.	-7619
▁2008,	-7620
▁2008.	-7621
▁2010,	-7622
▁2011,	-7623
▁2030,	-7624
▁2030.	-7625
▁3.000	-7626
▁30000	-7627
▁4,000	-7628
▁5,000	-7629
▁Aicha	-7630
▁Ailen	-7631
▁Alber	-7632
▁Allan	-7633
▁Altos	-7634
▁Amjad	-7635
▁Aston	-7636
▁Astor	-7637
▁Atala	-7638
▁Baehr	-7639
▁Banks	-7640
▁Betty	-7641
▁Birke	-7642
▁Botox	-7643
▁Bragg	-7644
▁Burma	-7645
▁Carib	-7646
▁Cesar	-7647
▁Child	-7648
▁Chiều	-7649
▁Chuẩn	-7650
▁Chuột	-7651
▁Chống	-7652
▁Chồng	-7653
▁Clive	-7654
▁Cohen	-7655
▁Conan	-7656
▁Costa	-7657
▁Crane	-7658
▁Damon	-7659
▁Delhi	-7660
▁Dewey	-7661
▁Diane	-7662
▁Dietz	-7663
▁Dolby	-7664
▁Donna	-7665
▁Duflo	-7666
▁Dusty	-7667
▁Eames	-7668
▁Earth	-7669
▁Ebert	-7670
▁Ellen	-7671
▁Elvis	-7672
▁Emily	-7673
▁Enron	-7674
▁Frost	-7675
▁Fulla	-7676
▁Gallo	-7677
▁Gamow	-7678
▁Gavin	-7679
▁Grace	-7680
▁Grant	-7681
▁Grier	-7682
▁Gupta	-7683
▁Haidt	-7684
▁Hamas	-7685
▁Heads	-7686
▁Homer	-7687
▁Horow	-7688
▁Huang	-7689
▁Hyder	-7690
▁Hướng	-7691
▁Indus	-7692
▁Intel	-7693
▁Jason	-7694
▁Johan	-7695
▁Jonas	-7696
▁Jorge	-7697
▁Keats	-7698
▁Kerry	-7699
▁Khiến	-7700
▁Khoai	-7701
▁Khuôn	-7702
▁Kiran	-7703
▁Kraft	-7704
▁Kyoto	-7705
▁Lanka	-7706
▁Libby	-7707
▁Linda	-7708
▁Linus	-7709
▁Locke	-7710
▁Logan	-7711
▁Loveg	-7712
▁Lương	-7713
▁Manju	-7714
▁Metro	-7715
▁Milan	-7716
▁Mises	-7717
▁Miếng	-7718
▁Moses	-7719
▁Motor	-7720
▁Nehru	-7721
▁Ngươi	-7722
▁Ngược	-7723
▁Nhiên	-7724
▁Nhung	-7725
▁Oprah	-7726
▁Osama	-7727
▁Pagan	-7728
▁Panth	-7729
▁Parik	-7730
▁Piazz	-7731
▁Pitts	-7732
▁Power	-7733
▁Qaeda	-7734
▁Ralph	-7735
▁Randy	-7736
▁Ratan	-7737
▁Renny	-7738
▁Roger	-7739
▁Rolls	-7740
▁Saima	-7741
▁Sandy	-7742
▁Scoop	-7743
▁Seoul	-7744
▁Sheik	-7745
▁Sinek	-7746
▁Sioux	-7747
▁Space	-7748
▁Stand	-7749
▁Stock	-7750
▁Super	-7751
▁TEDxK	-7752
▁Tarah	-7753
▁Terry	-7754
▁Texas	-7755
▁Thanh	-7756
▁Thiệt	-7757
▁Thoạt	-7758
▁Thước	-7759
▁Thằng	-7760
▁Triết	-7761
▁Trình	-7762
▁Trượt	-7763
▁Trắng	-7764
▁Trồng	-7765
▁Tường	-7766
▁Verme	-7767
▁Wales	-7768
▁Wayne	-7769
▁Willy	-7770
▁Winky	-7771
▁Worth	-7772
▁Yahoo	-7773
▁Yemen	-7774
▁Zvika	-7775
▁album	-7776
▁bloop	-7777
▁board	-7778
▁buông	-7779
▁canxi	-7780
▁catad	-7781
▁chiêc	-7782
▁chuồn	-7783
▁chửng	-7784
▁cockt	-7785
▁colla	-7786
▁freef	-7787
▁games	-7788
▁grams	-7789
▁hidro	-7790
▁huỳnh	-7791
▁khong	-7792
▁khăng	-7793
▁laser	-7794
▁liêng	-7795
▁muỗng	-7796
▁nghiã	-7797
▁ngách	-7798
▁ngước	-7799
▁ngừơi	-7800
▁nhằng	-7801
▁nuông	-7802
▁pants	-7803
▁phanh	-7804
▁phình	-7805
▁phăng	-7806
▁phỉnh	-7807
▁poker	-7808
▁quyện	-7809
▁quầng	-7810
▁radar	-7811
▁siêng	-7812
▁sushi	-7813
▁thiêu	-7814
▁thàng	-7815
▁thặng	-7816
▁trans	-7817
▁triễn	-7818
▁trúng	-7819
▁yards	-7820
Liabhan	-7821
Sputnik	-7822
agascar	-7823
ambique	-7824
angaroo	-7825
aseline	-7826
atzalah	-7827
ctrolux	-7828
ernicus	-7829
ication	-7830
iggledy	-7831
imoloch	-7832
issippi	-7833
maerica	-7834
minster	-7835
penheim	-7836
rofluid	-7837
thalate	-7838
uhahaha	-7839
ytophan	-7840
▁10,000	-7841
▁12,000	-7842
▁15.000	-7843
▁20,000	-7844
▁20.000	-7845
▁30,000	-7846
▁80.000	-7847
▁AirPix	-7848
▁Alaska	-7849
▁Alison	-7850
▁Amanda	-7851
▁Ariely	-7852
▁Arvind	-7853
▁Barack	-7854
▁Barbie	-7855
▁Bertie	-7856
▁Bhutan	-7857
▁Bieber	-7858
▁Bilbao	-7859
▁Bonnet	-7860
▁Bonnie	-7861
▁Borane	-7862
▁Borges	-7863
▁Brenda	-7864
▁Budrus	-7865
▁Burger	-7866
▁Camden	-7867
▁Camera	-7868
▁Cheryl	-7869
▁Chuyến	-7870
▁DARwln	-7871
▁DEPTHX	-7872
▁Debora	-7873
▁Donald	-7874
▁Dorset	-7875
▁Edison	-7876
▁Fanton	-7877
▁French	-7878
▁Garone	-7879
▁Gibran	-7880
▁Ginger	-7881
▁Habibi	-7882
▁Hacker	-7883
▁Hamlet	-7884
▁Harvey	-7885
▁Hawkes	-7886
▁Hebrew	-7887
▁Hitler	-7888
▁Hudson	-7889
▁Isabel	-7890
▁Island	-7891
▁Kaluza	-7892
▁Kaplan	-7893
▁Kenyon	-7894
▁Khalil	-7895
▁Khuyến	-7896
▁Kindle	-7897
▁Krishn	-7898
▁Krista	-7899
▁Kruger	-7900
▁Leadbe	-7901
▁Libăng	-7902
▁Lothar	-7903
▁Loyola	-7904
▁Madhav	-7905
▁Maidan	-7906
▁Manuel	-7907
▁Marduk	-7908
▁Markus	-7909
▁Mellon	-7910
▁Miguel	-7911
▁Milton	-7912
▁Mister	-7913
▁Mozart	-7914
▁Mullah	-7915
▁Mwenda	-7916
▁Nghiên	-7917
▁Nicole	-7918
▁Norman	-7919
▁Office	-7920
▁Ornish	-7921
▁Ostrow	-7922
▁Pamela	-7923
▁Pangea	-7924
▁Pashto	-7925
▁Pernod	-7926
▁Poupon	-7927
▁Prozac	-7928
▁Reader	-7929
▁Robbie	-7930
▁Ronson	-7931
▁Rupert	-7932
▁Salman	-7933
▁Sandel	-7934
▁Schulz	-7935
▁Senior	-7936
▁Sergey	-7937
▁Sheila	-7938
▁Sivers	-7939
▁Smolin	-7940
▁Suarez	-7941
▁Tajfel	-7942
▁Temple	-7943
▁Tricer	-7944
▁United	-7945
▁Valdez	-7946
▁Vander	-7947
▁Venezu	-7948
▁Vivian	-7949
▁buffet	-7950
▁calori	-7951
▁chuông	-7952
▁chuồng	-7953
▁dioxit	-7954
▁duplex	-7955
▁flying	-7956
▁gallon	-7957
▁gluten	-7958
▁gothic	-7959
▁helium	-7960
▁khoáng	-7961
▁kỏoảng	-7962
▁neuron	-7963
▁nghếch	-7964
▁robots	-7965
▁server	-7966
▁socola	-7967
▁thượng	-7968
▁yaourt	-7969
▁zipcar	-7970
adelphia	-7971
alakshmi	-7972
changing	-7973
imanjaro	-7974
osterone	-7975
otaxites	-7976
sylvania	-7977
▁150.000	-7978
▁200.000	-7979
▁Abracad	-7980
▁Aixơlen	-7981
▁Allende	-7982
▁Apophis	-7983
▁Aravena	-7984
▁Archive	-7985
▁Arizona	-7986
▁Assange	-7987
▁Babylon	-7988
▁Ballbot	-7989
▁Berkley	-7990
▁Brahimi	-7991
▁Caltech	-7992
▁Cargill	-7993
▁Chagall	-7994
▁Chicago	-7995
▁Clooney	-7996
▁Collins	-7997
▁Cornell	-7998
▁Cynthia	-7999
▁Derartu	-8000
▁Dorothy	-8001
▁Edwards	-8002
▁Eleanor	-8003
▁England	-8004
▁Estonia	-8005
▁Frankie	-8006
▁Gleeson	-8007
▁Goering	-8008
▁Gowanus	-8009
▁Grandin	-8010
▁Harriet	-8011
▁Heather	-8012
▁Janeiro	-8013
▁Jenkins	-8014
▁Jessica	-8015
▁Karmapa	-8016
▁Kathryn	-8017
▁Katrina	-8018
▁Kennedy	-8019
▁Lincoln	-8020
▁Micheal	-8021
▁Mizzone	-8022
▁Monster	-8023
▁Mundano	-8024
▁Murdoch	-8025
▁Mustafa	-8026
▁Netflix	-8027
▁Nicklin	-8028
▁Olympic	-8029
▁Orleans	-8030
▁Patrick	-8031
▁Phoenix	-8032
▁Pierson	-8033
▁Pollock	-8034
▁Rebecca	-8035
▁Reuther	-8036
▁Rockett	-8037
▁Shereen	-8038
▁Sitopia	-8039
▁Springs	-8040
▁Stephan	-8041
▁Sunitha	-8042
▁Swahili	-8043
▁Terence	-8044
▁Teszler	-8045
▁Whitney	-8046
▁Wolfram	-8047
▁alaikum	-8048
▁awesome	-8049
▁bucardo	-8050
▁caramen	-8051
▁complex	-8052
▁dollars	-8053
▁erectus	-8054
▁insulin	-8055
▁kilomet	-8056
▁splashy	-8057
▁terroir	-8058
▁tritium	-8059
▁uranium	-8060
ayelitsha	-8061
hanandani	-8062
▁Aberdeen	-8063
▁Abrahams	-8064
▁American	-8065
▁Arkansas	-8066
▁Atlantic	-8067
▁Berkeley	-8068
▁Botswana	-8069
▁Brisbane	-8070
▁Brooklyn	-8071
▁Burstein	-8072
▁Campbell	-8073
▁Carnegie	-8074
▁Caucasus	-8075
▁Columbia	-8076
▁Cruzeiro	-8077
▁Dietrich	-8078
▁Durkheim	-8079
▁Hamilton	-8080
▁Horowitz	-8081
▁Humboldt	-8082
▁Kaminsky	-8083
▁Mahabuba	-8084
▁Marshall	-8085
▁McDonald	-8086
▁Metropol	-8087
▁Missouri	-8088
▁Movember	-8089
▁Nathalia	-8090
▁Novocure	-8091
▁Okrainec	-8092
▁Paganini	-8093
▁Pantheon	-8094
▁Portland	-8095
▁Sandberg	-8096
▁Schwartz	-8097
▁Socrates	-8098
▁Svalbard	-8099
▁Tasmania	-8100
▁Thwaites	-8101
▁bloggers	-8102
▁catadore	-8103
▁centimét	-8104
▁cocktail	-8105
▁collagen	-8106
▁coumarin	-8107
▁marathon	-8108
▁nickname	-8109
▁wingsuit	-8110
▁Alejandro	-8111
▁Baltimore	-8112
▁Biosphere	-8113
▁Boltzmann	-8114
▁Caledonia	-8115
▁Cleveland	-8116
▁Economist	-8117
▁Forrester	-8118
▁Galapagos	-8119
▁Guatemala	-8120
▁Hyderabad	-8121
▁Jefferson	-8122
▁Jerusalem	-8123
▁Jonestown	-8124
▁Kamkwamba	-8125
▁Kurdistan	-8126
▁Kymaerica	-8127
▁Lovegrove	-8128
▁McGonigal	-8129
▁Minnesota	-8130
▁Nanopatch	-8131
▁Narcissus	-8132
▁Oppenheim	-8133
▁Phthalate	-8134
▁Piazzolla	-8135
▁Riverside	-8136
▁Sebastian	-8137
▁Stockholm	-8138
▁Venezuela	-8139
▁chocolate	-8140
▁microblog	-8141
▁trytophan	-8142
▁weeeaawww	-8143
▁Bangladesh	-8144
▁Britannica	-8145
▁Christakis	-8146
▁Copernicus	-8147
▁Electrolux	-8148
▁Flintstone	-8149
▁Georgetown	-8150
▁Homeopathy	-8151
▁Leadbeater	-8152
▁Lesterland	-8153
▁Madagascar	-8154
▁Mozambique	-8155
▁Pittsburgh	-8156
▁Tarahumara	-8157
▁freeflying	-8158
▁Abracadabra	-8159
▁Gingerbread	-8160
▁Kilimanjaro	-8161
▁Mahalakshmi	-8162
▁Mississippi	-8163
▁Stygimoloch	-8164
▁Triceratops	-8165
▁Whitesville	-8166
▁Pennsylvania	-8167
▁Philadelphia	-8168
▁Prototaxites	-8169
▁testosterone	-8170
!!!	-8171
-36	-8172
-40	-8173
-45	-8174
999	-8175
ARS	-8176
ART	-8177
ATA	-8178
Amy	-8179
And	-8180
CCO	-8181
DER	-8182
DRs	-8183
Hae	-8184
Hừm	-8185
IAA	-8186
IAC	-8187
IUC	-8188
LIS	-8189
NCA	-8190
NIC	-8191
PLA	-8192
Phụ	-8193
UCN	-8194
USC	-8195
Ugg	-8196
Vui	-8197
eCA	-8198
gaa	-8199
rdo	-8200
uja	-8201
Địa	-8202
▁Ủn	-8203
'93,	-8204
'97,	-8205
,"-1	-8206
,77.	-8207
Abid	-8208
Amen	-8209
Anne	-8210
CCOB	-8211
EFAN	-8212
Glob	-8213
Haha	-8214
Holy	-8215
Prob	-8216
Ruby	-8217
Tech	-8218
Uggh	-8219
adda	-8220
aghd	-8221
alfe	-8222
babs	-8223
bsqu	-8224
cles	-8225
cute	-8226
eysc	-8227
fasa	-8228
fdie	-8229
hasa	-8230
hirl	-8231
hize	-8232
hoff	-8233
iksv	-8234
inja	-8235
isda	-8236
lfur	-8237
mons	-8238
oint	-8239
onjo	-8240
oons	-8241
pany	-8242
pire	-8243
pool	-8244
pucc	-8245
qawi	-8246
rats	-8247
reye	-8248
reys	-8249
rkin	-8250
rsal	-8251
sava	-8252
scap	-8253
sche	-8254
shir	-8255
sote	-8256
swor	-8257
tful	-8258
ugns	-8259
wifi	-8260
ynbi	-8261
zzzz	-8262
đấng	-8263
ịnja	-8264
▁"25	-8265
▁"48	-8266
▁'66	-8267
▁2-3	-8268
▁3-4	-8269
▁414	-8270
▁462	-8271
▁547	-8272
▁6,9	-8273
▁630	-8274
▁722	-8275
▁8-1	-8276
▁9.3	-8277
▁9.7	-8278
▁ABC	-8279
▁ACM	-8280
▁BBC	-8281
▁BER	-8282
▁BLA	-8283
▁BRC	-8284
▁Boe	-8285
▁CAO	-8286
▁CAT	-8287
▁CBS	-8288
▁FBI	-8289
▁Ghế	-8290
▁Hsi	-8291
▁IMD	-8292
▁IMF	-8293
▁JET	-8294
▁Jae	-8295
▁LHQ	-8296
▁Liu	-8297
▁Noí	-8298
▁OMG	-8299
-25	-8300
16,	-8301
MAP	-8302
epp	-8303
giờ	-8304
prü	-8305
rrm	-8306
16,1	-8307
2008	-8308
Khán	-8309
enko	-8310
fred	-8311
lulo	-8312
onna	-8313
prin	-8314
prüf	-8315
rrmr	-8316
▁"6,	-8317
▁-15	-8318
▁96,	-8319
▁PTT	-8320
▁RCA	-8321
▁Roj	-8322
▁SOH	-8323
▁THU	-8324
▁TiV	-8325
▁Tzu	-8326
▁Umh	-8327
▁Vui	-8328
▁Wii	-8329
▁XDR	-8330
▁XIn	-8331
▁app	-8332
▁blu	-8333
▁bỉm	-8334
▁hep	-8335
▁hểm	-8336
▁itn	-8337
▁kep	-8338
▁mmê	-8339
▁mõm	-8340
▁naỳ	-8341
▁vơí	-8342
▁yểm	-8343
▁đũa	-8344
,"-18	-8345
2001:	-8346
ANIAC	-8347
Absqu	-8348
Andre	-8349
Astor	-8350
Byrne	-8351
Clair	-8352
Cohen	-8353
Manif	-8354
Marie	-8355
Marse	-8356
Money	-8357
NICEF	-8358
Shake	-8359
Toole	-8360
achtw	-8361
acyra	-8362
adget	-8363
agawa	-8364
anesa	-8365
angju	-8366
aokim	-8367
aptre	-8368
arker	-8369
athML	-8370
aucer	-8371
auser	-8372
avona	-8373
awlyn	-8374
catan	-8375
child	-8376
comet	-8377
cteri	-8378
doanh	-8379
ecute	-8380
edles	-8381
eimei	-8382
elile	-8383
engat	-8384
eping	-8385
ermit	-8386
errif	-8387
harat	-8388
heels	-8389
icity	-8390
ietas	-8391
igula	-8392
ikahn	-8393
ilogy	-8394
impac	-8395
impop	-8396
innec	-8397
inoff	-8398
isenh	-8399
Lux	-8400
Quý	-8401
cci	-8402
drô	-8403
▁ẹo	-8404
900.	-8405
Quay	-8406
appa	-8407
kene	-8408
kner	-8409
tics	-8410
▁8.2	-8411
▁CCP	-8412
▁Gwy	-8413
▁PHP	-8414
▁PHỤ	-8415
▁Raq	-8416
▁prô	-8417
Billy	-8418
amics	-8419
eeger	-8420
itzer	-8421
lader	-8422
lavin	-8423
leton	-8424
lobin	-8425
lough	-8426
ntgen	-8427
nyder	-8428
ocrac	-8429
okuni	-8430
olbar	-8431
oleil	-8432
ollap	-8433
olulu	-8434
onaar	-8435
onnie	-8436
onsai	-8437
oowww	-8438
orfer	-8439
owski	-8440
oyota	-8441
pburn	-8442
phant	-8443
pines	-8444
pkins	-8445
racor	-8446
rassa	-8447
reddi	-8448
regon	-8449
reyek	-8450
riDER	-8451
richa	-8452
rizes	-8453
rsing	-8454
shirt	-8455
shkin	-8456
slash	-8457
stead	-8458
storm	-8459
talia	-8460
treal	-8461
uegel	-8462
ugust	-8463
uluth	-8464
unity	-8465
unkan	-8466
unner	-8467
uprof	-8468
urtig	-8469
utrin	-8470
wwwww	-8471
yphic	-8472
zetti	-8473
zquez	-8474
zsche	-8475
zzzzt	-8476
ơteri	-8477
▁1.25	-8478
▁1.33	-8479
▁1.78	-8480
▁10-1	-8481
▁11.5	-8482
▁11.9	-8483
▁14,1	-8484
▁1862	-8485
▁3700	-8486
▁4300	-8487
▁45-6	-8488
▁4666	-8489
▁5486	-8490
▁581.	-8491
▁594.	-8492
▁7,25	-8493
▁99.9	-8494
▁Ails	-8495
▁Airs	-8496
▁Algo	-8497
▁Appr	-8498
▁Asim	-8499
▁ừh	-8500
ollb	-8501
ussa	-8502
▁540	-8503
▁GoG	-8504
antos	-8505
ascon	-8506
asura	-8507
atchi	-8508
ethod	-8509
ffiti	-8510
ieves	-8511
imini	-8512
nhiễu	-8513
olllo	-8514
owden	-8515
peare	-8516
stant	-8517
tende	-8518
udini	-8519
ulgar	-8520
ílian	-8521
▁1910	-8522
▁1915	-8523
▁2600	-8524
▁Agar	-8525
▁Auen	-8526
▁Aval	-8527
▁Avaz	-8528
▁Aviv	-8529
▁BERG	-8530
▁BRCK	-8531
▁Birg	-8532
▁Blai	-8533
▁Boah	-8534
▁Boom	-8535
▁Byte	-8536
▁CPhi	-8537
▁Cafe	-8538
▁Casa	-8539
▁Case	-8540
▁Comm	-8541
▁Corv	-8542
▁Cuõi	-8543
▁Cuộn	-8544
▁Dahl	-8545
▁Dale	-8546
▁Dari	-8547
▁Dars	-8548
▁Depp	-8549
▁Desc	-8550
▁Dhar	-8551
▁Elyn	-8552
▁Enri	-8553
▁Erez	-8554
▁Erin	-8555
▁Fais	-8556
▁Fear	-8557
▁FedE	-8558
▁Feyn	-8559
▁Flex	-8560
▁Fueg	-8561
▁Gerh	-8562
▁Ghem	-8563
▁Glas	-8564
▁Gorg	-8565
▁Goul	-8566
▁Gour	-8567
▁Grou	-8568
▁Hahn	-8569
▁Haji	-8570
▁Hawk	-8571
▁Heer	-8572
▁Heid	-8573
▁Hobs	-8574
▁Holl	-8575
▁Hond	-8576
▁Huff	-8577
▁IMDB	-8578
▁INCA	-8579
▁IUCN	-8580
▁Imam	-8581
▁Inge	-8582
▁Jake	-8583
▁Java	-8584
▁Jorg	-8585
▁Karn	-8586
▁Kary	-8587
▁Kidd	-8588
▁Knee	-8589
▁Knud	-8590
▁Knut	-8591
▁Laet	-8592
▁Lauf	-8593
▁Laur	-8594
▁Lebn	-8595
▁Linz	-8596
▁Liti	-8597
▁Lucy	-8598
▁Lynn	-8599
12,	-8600
▁ín	-8601
Foot	-8602
Home	-8603
Kean	-8604
Tipp	-8605
▁326	-8606
▁95-	-8607
▁Nye	-8608
▁Ork	-8609
▁Tuỵ	-8610
▁xiu	-8611
▁zip	-8612
▁zor	-8613
▁đẽo	-8614
appos	-8615
green	-8616
incet	-8617
inked	-8618
ipper	-8619
merwe	-8620
umque	-8621
urace	-8622
▁0.2,	-8623
▁Ando	-8624
▁Chín	-8625
▁Ecol	-8626
▁Hamp	-8627
▁Hipp	-8628
▁Jace	-8629
▁Jimi	-8630
▁Magr	-8631
▁Malt	-8632
▁Metc	-8633
▁Mieb	-8634
▁Miro	-8635
▁Miwa	-8636
▁Mosc	-8637
▁Nanc	-8638
▁Naná	-8639
▁Navi	-8640
▁Nguỵ	-8641
▁Niem	-8642
▁Niet	-8643
▁Nobu	-8644
▁Noãn	-8645
▁Omar	-8646
▁Open	-8647
▁Opus	-8648
▁PDRs	-8649
▁PTSD	-8650
▁PTTH	-8651
▁Peru	-8652
▁Piet	-8653
▁Pimp	-8654
▁Polo	-8655
▁Poly	-8656
▁Pope	-8657
▁Pret	-8658
▁Pugh	-8659
▁RIAA	-8660
▁Radc	-8661
▁Radj	-8662
▁Rafi	-8663
▁Ragh	-8664
▁Rams	-8665
▁Reno	-8666
▁Reyn	-8667
▁Rhim	-8668
▁Roma	-8669
▁Root	-8670
▁Ruby	-8671
▁SARS	-8672
▁SOLO	-8673
▁SPLA	-8674
▁SSRI	-8675
▁Seav	-8676
▁Seng	-8677
▁Seth	-8678
▁Stux	-8679
▁Suez	-8680
▁Swat	-8681
▁THUA	-8682
▁TiVo	-8683
▁Tibb	-8684
▁Tipp	-8685
▁Tiêm	-8686
▁Trừu	-8687
▁Turk	-8688
▁Unic	-8689
▁Unil	-8690
▁Velc	-8691
▁Velá	-8692
▁Verg	-8693
▁Volv	-8694
▁Véli	-8695
▁Võng	-8696
▁WMAP	-8697
▁Wide	-8698
▁Worm	-8699
-3.	-8700
47.	-8701
Iwe	-8702
USD	-8703
'47.	-8704
aikh	-8705
arms	-8706
down	-8707
erna	-8708
jali	-8709
okia	-8710
tana	-8711
wani	-8712
▁485	-8713
▁Crh	-8714
▁Cru	-8715
▁Elm	-8716
▁aer	-8717
▁scr	-8718
▁uhm	-8719
alauy	-8720
aparm	-8721
ardeh	-8722
ectoc	-8723
elect	-8724
ernav	-8725
ernob	-8726
itect	-8727
ixing	-8728
khang	-8729
lenie	-8730
liani	-8731
omali	-8732
opsia	-8733
zbert	-8734
▁Bigg	-8735
▁Crun	-8736
▁Elon	-8737
▁Fala	-8738
▁Germ	-8739
▁SOHO	-8740
▁Smol	-8741
▁Soto	-8742
▁Tour	-8743
▁Wyom	-8744
▁Wyss	-8745
▁XKCD	-8746
▁Xuất	-8747
▁Youk	-8748
▁acin	-8749
▁acre	-8750
▁also	-8751
▁aram	-8752
▁arap	-8753
▁aria	-8754
▁beat	-8755
▁beta	-8756
▁boom	-8757
▁burn	-8758
▁bươc	-8759
▁demo	-8760
▁eBox	-8761
▁four	-8762
▁free	-8763
▁guit	-8764
▁gươm	-8765
▁hijo	-8766
▁jeep	-8767
▁loẹt	-8768
▁ngụm	-8769
▁prob	-8770
▁prôt	-8771
▁quẹt	-8772
▁reCA	-8773
▁rưởi	-8774
▁rụng	-8775
▁seri	-8776
▁shop	-8777
▁skys	-8778
▁sưởi	-8779
▁teen	-8780
▁tuýp	-8781
▁vểnh	-8782
▁want	-8783
▁wifi	-8784
▁zoom	-8785
▁Đoán	-8786
16,17,	-8787
Blader	-8788
Bonnie	-8789
Charms	-8790
Friend	-8791
Global	-8792
Iweala	-8793
Jetman	-8794
Kermit	-8795
Moneyb	-8796
Probes	-8797
Sphere	-8798
Wardeh	-8799
,"'	-8800
8,1	-8801
Ahh	-8802
IDI	-8803
hộp	-8804
pei	-8805
uca	-8806
uhm	-8807
úât	-8808
18,1	-8809
Giám	-8810
Giải	-8811
brug	-8812
colm	-8813
embr	-8814
ensk	-8815
erve	-8816
esca	-8817
ftus	-8818
imba	-8819
jens	-8820
peii	-8821
reca	-8822
▁999	-8823
▁[1,	-8824
anceV	-8825
brook	-8826
cesca	-8827
itten	-8828
ophag	-8829
otoph	-8830
thens	-8831
ziger	-8832
▁148,	-8833
▁1954	-8834
▁1959	-8835
▁Abha	-8836
▁Albr	-8837
▁Gero	-8838
▁Llar	-8839
▁Luca	-8840
▁MIDI	-8841
▁Nato	-8842
▁Niel	-8843
▁Odin	-8844
▁Pink	-8845
▁[1,1	-8846
▁hero	-8847
▁love	-8848
▁sens	-8849
▁xúât	-8850
18,19.	-8851
agasak	-8852
aghead	-8853
ahatma	-8854
aiders	-8855
ailway	-8856
aldine	-8857
alinas	-8858
amirez	-8859
angoon	-8860
anholm	-8861
appucc	-8862
apster	-8863
ardini	-8864
aritan	-8865
arltar	-8866
armeen	-8867
arqawi	-8868
asheng	-8869
avelle	-8870
awesar	-8871
caster	-8872
edione	-8873
electr	-8874
enbach	-8875
engine	-8876
eosote	-8877
ernand	-8878
ernick	-8879
erpool	-8880
errari	-8881
essage	-8882
essari	-8883
etters	-8884
everly	-8885
felder	-8886
feller	-8887
harata	-8888
horter	-8889
iasson	-8890
ijuana	-8891
iltonL	-8892
indows	-8893
ingway	-8894
iotics	-8895
itania	-8896
itchen	-8897
iteshv	-8898
karate	-8899
Cup	-8900
▁Út	-8901
anni	-8902
anuk	-8903
etts	-8904
kara	-8905
lanc	-8906
ller	-8907
moth	-8908
oCup	-8909
orts	-8910
royo	-8911
▁0.7	-8912
▁Hộp	-8913
▁Yue	-8914
annah	-8915
annel	-8916
arduk	-8917
other	-8918
relin	-8919
ukier	-8920
öller	-8921
▁1943	-8922
▁1945	-8923
▁Bond	-8924
▁Crot	-8925
▁Talw	-8926
▁True	-8927
▁Vann	-8928
▁Wood	-8929
▁chât	-8930
▁cort	-8931
▁gara	-8932
▁khửu	-8933
▁lapa	-8934
Christ	-8935
Marduk	-8936
ammoth	-8937
annelr	-8938
anukov	-8939
khstan	-8940
kkhang	-8941
lasela	-8942
lassic	-8943
lipper	-8944
luloza	-8945
lutkin	-8946
master	-8947
mebrew	-8948
morrow	-8949
nagawa	-8950
neally	-8951
nghiện	-8952
nowden	-8953
ocaine	-8954
ocracy	-8955
ollloh	-8956
olving	-8957
omenes	-8958
ompeii	-8959
organa	-8960
otitan	-8961
ounded	-8962
ovanni	-8963
owline	-8964
panage	-8965
perger	-8966
peruse	-8967
phreys	-8968
prüfer	-8969
rannus	-8970
ration	-8971
ricket	-8972
rofile	-8973
rosser	-8974
rrmrmm	-8975
rrrrrr	-8976
stream	-8977
sworth	-8978
ttende	-8979
ubbert	-8980
ugrats	-8981
unitha	-8982
unkank	-8983
urally	-8984
urtney	-8985
usetts	-8986
ussein	-8987
ustain	-8988
utgers	-8989
▁1,250	-8990
▁1,800	-8991
▁1.400	-8992
▁1.782	-8993
▁1500.	-8994
▁1700,	-8995
▁1770.	-8996
▁1830,	-8997
▁1871,	-8998
▁1885,	-8999
EFL	-9000
Trừ	-9001
box	-9002
▁02	-9003
▁03	-9004
▁04	-9005
Kite	-9006
OEFL	-9007
Trừu	-9008
bors	-9009
endu	-9010
erts	-9011
erty	-9012
giúp	-9013
gler	-9014
mert	-9015
onto	-9016
othè	-9017
sler	-9018
toán	-9019
uver	-9020
witz	-9021
▁23,	-9022
▁230	-9023
▁3.1	-9024
▁3.2	-9025
▁Sox	-9026
▁Tox	-9027
▁cợt	-9028
▁lằn	-9029
▁tụi	-9030
▁Ôto	-9031
▁õng	-9032
Kitef	-9033
Trang	-9034
Trung	-9035
Trình	-9036
awren	-9037
ector	-9038
endan	-9039
hendu	-9040
herty	-9041
irren	-9042
mbors	-9043
ogito	-9044
owsky	-9045
ubert	-9046
▁1833	-9047
▁2015	-9048
▁23,8	-9049
▁683.	-9050
▁Acar	-9051
▁Burg	-9052
▁Burk	-9053
▁High	-9054
▁Kund	-9055
▁Mons	-9056
▁Mout	-9057
▁Ocar	-9058
▁Toxo	-9059
▁Wren	-9060
▁nice	-9061
▁play	-9062
Cogito	-9063
andler	-9064
awling	-9065
carbon	-9066
chwitz	-9067
couver	-9068
entice	-9069
ertsma	-9070
ymbors	-9071
▁1833?	-9072
▁1842.	-9073
▁1887.	-9074
▁1888.	-9075
▁1890.	-9076
▁1891.	-9077
▁1908.	-9078
▁1918.	-9079
▁1920;	-9080
▁1929,	-9081
▁1936.	-9082
▁1939,	-9083
▁1939.	-9084
▁1942.	-9085
▁1945,	-9086
▁1947,	-9087
▁1948.	-9088
▁1953.	-9089
▁1959.	-9090
▁1971,	-9091
▁1974.	-9092
▁1986,	-9093
▁1993.	-9094
▁1994,	-9095
▁1997,	-9096
▁1998.	-9097
▁2001:	-9098
▁2011.	-9099
Bir	-9100
Syr	-9101
irp	-9102
kaj	-9103
▁ùm	-9104
Airp	-9105
Bird	-9106
Rast	-9107
ired	-9108
irit	-9109
last	-9110
lino	-9111
lyse	-9112
onka	-9113
rens	-9114
seff	-9115
taxi	-9116
uyễn	-9117
uzel	-9118
▁Cir	-9119
▁Guo	-9120
▁Muz	-9121
▁Oxi	-9122
▁Tse	-9123
▁gẫy	-9124
Airpl	-9125
Elyse	-9126
Syrie	-9127
abibi	-9128
acram	-9129
aello	-9130
ankaj	-9131
aptop	-9132
astel	-9133
hamed	-9134
igram	-9135
inney	-9136
llino	-9137
ogram	-9138
ramer	-9139
shape	-9140
urple	-9141
▁Dios	-9142
▁Eben	-9143
▁Kane	-9144
▁chòm	-9145
▁pier	-9146
▁vãnh	-9147
Alison	-9148
Habibi	-9149
Pinney	-9150
artney	-9151
cleand	-9152
italin	-9153
lastic	-9154
oshell	-9155
usseff	-9156
▁2014.	-9157
▁2020,	-9158
▁2050?	-9159
▁23000	-9160
▁30-45	-9161
▁3481.	-9162
▁35-36	-9163
▁42000	-9164
▁44000	-9165
▁7,100	-9166
▁7000.	-9167
▁8.200	-9168
▁95-99	-9169
▁Abdul	-9170
▁Acheb	-9171
▁Actor	-9172
▁Aditi	-9173
▁Adobe	-9174
▁Adolf	-9175
▁Adria	-9176
▁Aeron	-9177
▁Ahhhh	-9178
▁Ahmed	-9179
▁Alast	-9180
▁Alban	-9181
▁Anant	-9182
▁Annun	-9183
▁Areca	-9184
▁Bandi	-9185
▁Basit	-9186
▁BeatJ	-9187
▁Bensc	-9188
▁Bienn	-9189
▁Bigel	-9190
▁Bilal	-9191
▁Black	-9192
▁Blair	-9193
▁Blanc	-9194
▁Bliss	-9195
▁Boliv	-9196
▁Bolsh	-9197
▁Bonif	-9198
▁Breel	-9199
ASS	-9200
IAS	-9201
LAS	-9202
RNA	-9203
axe	-9204
iza	-9205
PASS	-9206
addy	-9207
axac	-9208
htin	-9209
lays	-9210
rady	-9211
ziza	-9212
▁0,6	-9213
▁Eps	-9214
▁Liz	-9215
▁Loa	-9216
▁Viz	-9217
▁dòm	-9218
▁fax	-9219
▁hùm	-9220
▁xịt	-9221
▁đờn	-9222
IASur	-9223
axaca	-9224
oldhe	-9225
roRNA	-9226
rosoc	-9227
▁Buck	-9228
▁Cướp	-9229
▁Dami	-9230
▁Eddy	-9231
▁Faul	-9232
▁Hama	-9233
▁Jins	-9234
▁Jody	-9235
▁Lois	-9236
▁Mama	-9237
▁Palt	-9238
▁Park	-9239
▁Rama	-9240
▁Read	-9241
▁Rohe	-9242
▁Saxe	-9243
▁amin	-9244
▁hươn	-9245
▁slid	-9246
ANCCOB	-9247
Gregor	-9248
amanda	-9249
oldhek	-9250
rosocz	-9251
▁2013.	-9252
▁ATLAS	-9253
▁Aziza	-9254
▁Breiv	-9255
▁Brene	-9256
▁Brené	-9257
▁Bruce	-9258
▁Budap	-9259
▁Buddy	-9260
▁Burch	-9261
▁Burns	-9262
▁Calms	-9263
▁Capra	-9264
▁Casab	-9265
▁Catar	-9266
▁Cathy	-9267
▁Chadd	-9268
▁Chade	-9269
▁Charm	-9270
▁Chiêm	-9271
▁Coban	-9272
▁Coles	-9273
▁Copac	-9274
▁Copan	-9275
▁Corol	-9276
▁Corot	-9277
▁Crash	-9278
▁Crick	-9279
▁Crist	-9280
▁Cycle	-9281
▁Daily	-9282
▁Damas	-9283
▁Death	-9284
▁Debor	-9285
▁Demon	-9286
▁Desai	-9287
▁Dilip	-9288
▁Dilma	-9289
▁Dolly	-9290
▁Dorit	-9291
▁Ecoli	-9292
▁Ecuad	-9293
▁Emdin	-9294
▁Encel	-9295
▁Erica	-9296
▁Erick	-9297
▁Europ	-9298
▁Euros	-9299
-50	-9300
Hmm	-9301
Mug	-9302
rma	-9303
ugn	-9304
uke	-9305
ête	-9306
Fête	-9307
Mugw	-9308
Rain	-9309
acha	-9310
achi	-9311
ante	-9312
aste	-9313
elma	-9314
iona	-9315
itte	-9316
kimo	-9317
moan	-9318
otte	-9319
sain	-9320
ugia	-9321
ylen	-9322
yler	-9323
▁2.3	-9324
▁2.7	-9325
▁21,	-9326
▁24.	-9327
▁24?	-9328
▁70?	-9329
▁Dyl	-9330
▁Hmm	-9331
▁Hug	-9332
▁Rep	-9333
▁lẻn	-9334
▁sụt	-9335
▁wug	-9336
acebo	-9337
engar	-9338
evada	-9339
fugia	-9340
icate	-9341
ionel	-9342
ionic	-9343
ision	-9344
itron	-9345
pskin	-9346
ulate	-9347
▁1965	-9348
▁1976	-9349
▁21,3	-9350
▁Cain	-9351
▁Duke	-9352
▁Emma	-9353
▁Hugo	-9354
▁RepR	-9355
▁Rượu	-9356
▁Spec	-9357
▁micr	-9358
▁rock	-9359
▁rode	-9360
Mugwum	-9361
ionaea	-9362
isante	-9363
yengar	-9364
▁1982.	-9365
▁21,37	-9366
▁30-50	-9367
▁Berry	-9368
▁Bonds	-9369
▁Brain	-9370
▁Dylan	-9371
▁Evans	-9372
▁Falls	-9373
▁Force	-9374
▁Forer	-9375
▁Freud	-9376
▁Fried	-9377
▁Fuego	-9378
▁Gando	-9379
▁Gevin	-9380
▁Glatt	-9381
▁Glenn	-9382
▁GoGet	-9383
▁Goldf	-9384
▁Goose	-9385
▁Grady	-9386
▁Griff	-9387
▁Group	-9388
▁Grove	-9389
▁Gucci	-9390
▁Halif	-9391
▁Hallo	-9392
▁Hanks	-9393
▁Heidi	-9394
▁Herit	-9395
▁Hetti	-9396
▁Hidal	-9397
▁Hills	-9398
▁Hobsb	-9399
Mmm	-9400
Roy	-9401
dog	-9402
oyd	-9403
oyo	-9404
sky	-9405
uýt	-9406
▁0?	-9407
ains	-9408
corn	-9409
eroy	-9410
etta	-9411
eymo	-9412
inds	-9413
itta	-9414
mode	-9415
pers	-9416
shak	-9417
stoy	-9418
tdog	-9419
▁1.5	-9420
▁1.8	-9421
▁17.	-9422
▁170	-9423
▁17:	-9424
▁39.	-9425
▁Bog	-9426
▁DEC	-9427
▁Poy	-9428
▁Soy	-9429
▁ôxy	-9430
Royce	-9431
ealth	-9432
icass	-9433
igail	-9434
ocken	-9435
oloff	-9436
orneo	-9437
orner	-9438
srael	-9439
verle	-9440
ynsky	-9441
▁300.	-9442
▁Boyd	-9443
▁Cous	-9444
▁Dass	-9445
▁Gers	-9446
▁Hass	-9447
▁Moyo	-9448
▁Poyn	-9449
▁cass	-9450
▁nguổ	-9451
▁nguỵ	-9452
▁with	-9453
Chains	-9454
Israel	-9455
aleigh	-9456
anders	-9457
apshak	-9458
ardass	-9459
eymour	-9460
icasso	-9461
indsey	-9462
inkedI	-9463
intosh	-9464
island	-9465
olstoy	-9466
oppers	-9467
▁1938,	-9468
▁Adami	-9469
▁Amhar	-9470
▁Angry	-9471
▁Gersh	-9472
▁Hosni	-9473
▁House	-9474
▁Hsiao	-9475
▁Hyatt	-9476
▁Image	-9477
▁Imara	-9478
▁India	-9479
▁Ingaw	-9480
▁Istan	-9481
▁Jacob	-9482
▁Jacqu	-9483
▁Jamil	-9484
▁Jared	-9485
▁Jenna	-9486
▁Joach	-9487
▁Jonny	-9488
▁Journ	-9489
▁Kalad	-9490
▁Kalis	-9491
▁Kazak	-9492
▁Kenny	-9493
▁Khanf	-9494
▁Khuấy	-9495
▁Kings	-9496
▁Klein	-9497
▁Knols	-9498
▁Koska	-9499
div	-9500
ovo	-9501
tir	-9502
Tric	-9503
ashm	-9504
atha	-9505
athw	-9506
ativ	-9507
azov	-9508
bury	-9509
ecti	-9510
ikov	-9511
ince	-9512
ivic	-9513
ivin	-9514
lock	-9515
rice	-9516
rics	-9517
rict	-9518
tien	-9519
urej	-9520
▁1,6	-9521
▁1,7	-9522
▁165	-9523
▁886	-9524
▁Bov	-9525
▁Cov	-9526
▁Cùi	-9527
▁Ice	-9528
▁cup	-9529
arash	-9530
athai	-9531
atham	-9532
brech	-9533
ennac	-9534
ittle	-9535
liers	-9536
yazov	-9537
óttir	-9538
▁1981	-9539
▁1984	-9540
▁1992	-9541
▁1998	-9542
▁1999	-9543
▁Benn	-9544
▁Ince	-9545
▁Luce	-9546
▁Tenn	-9547
▁chùn	-9548
▁cupc	-9549
▁cuôn	-9550
▁loga	-9551
▁sướt	-9552
arasht	-9553
ashmir	-9554
astien	-9555
athwai	-9556
ativec	-9557
brecht	-9558
diving	-9559
dóttir	-9560
ection	-9561
hnikov	-9562
olivin	-9563
urejob	-9564
▁1,700	-9565
▁Austr	-9566
▁Carro	-9567
▁Chuck	-9568
▁Cyber	-9569
▁Kunst	-9570
▁Linar	-9571
▁Logic	-9572
▁Louie	-9573
▁MOOCs	-9574
▁Madur	-9575
▁Malem	-9576
▁Malth	-9577
▁Manko	-9578
▁Marks	-9579
▁Matty	-9580
▁Media	-9581
▁Meind	-9582
▁Mello	-9583
▁Menom	-9584
▁Miami	-9585
▁Mills	-9586
▁Missm	-9587
▁Mitch	-9588
▁Model	-9589
▁Moria	-9590
▁Moroc	-9591
▁Moros	-9592
▁Moshe	-9593
▁Mrace	-9594
▁Musab	-9595
▁Music	-9596
▁Mwang	-9597
▁Nader	-9598
▁Narco	-9599
One	-9600
giả	-9601
hod	-9602
hya	-9603
odt	-9604
ody	-9605
rix	-9606
ỵệt	-9607
▁$?	-9608
▁ZK	-9609
▁Zo	-9610
Ngay	-9611
Ngày	-9612
ethi	-9613
etri	-9614
kash	-9615
odil	-9616
odin	-9617
odle	-9618
ooka	-9619
▁2,7	-9620
▁Bod	-9621
▁Uri	-9622
▁Wax	-9623
▁Zal	-9624
▁Zur	-9625
▁hớn	-9626
▁vén	-9627
amodt	-9628
eanne	-9629
essal	-9630
essee	-9631
hodos	-9632
ipOne	-9633
ughar	-9634
▁2,70	-9635
▁Amos	-9636
▁Bodn	-9637
▁Chén	-9638
▁Cody	-9639
▁Dana	-9640
▁Leah	-9641
▁Lãng	-9642
▁Noel	-9643
▁Tươi	-9644
▁Watt	-9645
▁Zoil	-9646
▁dịnh	-9647
▁lgiả	-9648
▁watt	-9649
azooka	-9650
endrix	-9651
ffodil	-9652
hodosp	-9653
▁1890;	-9654
▁Aless	-9655
▁Amber	-9656
▁Geert	-9657
▁Luhya	-9658
▁Nanko	-9659
▁Niese	-9660
▁Night	-9661
▁Noble	-9662
▁Nokia	-9663
▁Nolan	-9664
▁Novak	-9665
▁Okano	-9666
▁Olden	-9667
▁Ooooh	-9668
▁Opera	-9669
▁Oscar	-9670
▁Oskar	-9671
▁Paddy	-9672
▁Pants	-9673
▁Paola	-9674
▁Paolo	-9675
▁Parag	-9676
▁Parsi	-9677
▁Peace	-9678
▁Perel	-9679
▁Perth	-9680
▁Petri	-9681
▁Plait	-9682
▁Popul	-9683
▁Posto	-9684
▁Quads	-9685
▁Quãng	-9686
▁Rajao	-9687
▁Rajiv	-9688
▁Raqib	-9689
▁Ratha	-9690
▁Ravin	-9691
▁Reinh	-9692
▁Ridge	-9693
▁Roald	-9694
▁Robin	-9695
▁RockY	-9696
▁Rojas	-9697
▁Rosel	-9698
▁Rowed	-9699
20,	-9700
cif	-9701
exe	-9702
ife	-9703
ift	-9704
ify	-9705
meg	-9706
ouf	-9707
oug	-9708
oyc	-9709
riv	-9710
zeg	-9711
▁uh	-9712
▁ưự	-9713
Doug	-9714
Rượu	-9715
alou	-9716
bley	-9717
elađ	-9718
face	-9719
oufl	-9720
oycz	-9721
west	-9722
yber	-9723
▁0.6	-9724
▁13.	-9725
▁996	-9726
▁Hãn	-9727
▁Lux	-9728
▁Meg	-9729
▁Pri	-9730
▁[0,	-9731
▁hãn	-9732
▁rou	-9733
▁sex	-9734
▁vẹo	-9735
▁vợt	-9736
▁you	-9737
▁đợn	-9738
Chell	-9739
acken	-9740
alles	-9741
bardo	-9742
chley	-9743
erest	-9744
ifton	-9745
lanca	-9746
malou	-9747
megaw	-9748
otify	-9749
rient	-9750
rived	-9751
zegor	-9752
▁Brad	-9753
▁Fife	-9754
▁Herc	-9755
▁Hobb	-9756
▁Lueb	-9757
▁Luth	-9758
▁Luxo	-9759
▁Lưỡi	-9760
▁Megg	-9761
▁Pack	-9762
▁Rcif	-9763
▁Sant	-9764
▁[0,0	-9765
▁bell	-9766
▁many	-9767
▁ngĩa	-9768
▁sexy	-9769
ackenz	-9770
artman	-9771
berian	-9772
berton	-9773
embley	-9774
ouflon	-9775
oyczan	-9776
zegorz	-9777
▁Diana	-9778
▁Excel	-9779
▁Luebk	-9780
▁Muniz	-9781
▁PackB	-9782
▁Prize	-9783
▁Rupal	-9784
▁Rwand	-9785
▁Sadik	-9786
▁Sadow	-9787
▁Saint	-9788
▁Sangu	-9789
▁Sayed	-9790
▁Scran	-9791
▁Seatt	-9792
▁Shane	-9793
▁Shawn	-9794
▁Sheer	-9795
▁Shift	-9796
▁Siegf	-9797
▁Skoll	-9798
▁	-9799
n	-9800
h	-9801
t	-9802
i	-9803
c	-9804
g	-9805
à	-9806
a	-9807
đ	-9808
u	-9809
m	-9810
.	-9811
l	-9812
o	-9813
y	-9814
ô	-9815
r	-9816
v	-9817
ó	-9818
ư	-9819
b	-9820
á	-9821
k	-9822
s	-9823
,	-9824
ạ	-9825
ế	-9826
p	-9827
ộ	-9828
ả	-9829
ấ	-9830
ú	-9831
ề	-9832
ì	-9833
â	-9834
ố	-9835
ệ	-9836
ờ	-9837
d	-9838
ớ	-9839
ể	-9840
ê	-9841
e	-9842
T	-9843
ậ	-9844
ữ	-9845
V	-9846
ự	-9847
C	-9848
ọ	-9849
ủ	-9850
ã	-9851
N	-9852
ợ	-9853
ầ	-9854
ơ	-9855
ở	-9856
ứ	-9857
í	-9858
q	-9859
"	-9860
x	-9861
Đ	-9862
?	-9863
ă	-9864
ắ	-9865
ị	-9866
ẽ	-9867
B	-9868
ụ	-9869
ừ	-9870
ồ	-9871
H	-9872
0	-9873
M	-9874
ĩ	-9875
1	-9876
ổ	-9877
ò	-9878
ằ	-9879
ù	-9880
ỏ	-9881
:	-9882
ặ	-9883
ỉ	-9884
ũ	-9885
K	-9886
ử	-9887
S	-9888
ý	-9889
A	-9890
é	-9891
L	-9892
2	-9893
ẻ	-9894
ẫ	-9895
ỗ	-9896
G	-9897
D	-9898
P	-9899
ẩ	-9900
ễ	-9901
R	-9902
ẹ	-9903
5	-9904
3	-9905
-	-9906
—	-9907
9	-9908
w	-9909
E	-9910
ẳ	-9911
ỹ	-9912
4	-9913
J	-9914
I	-9915
Q	-9916
O	-9917
ỡ	-9918
8	-9919
f	-9920
õ	-9921
ỳ	-9922
ỷ	-9923
Ô	-9924
è	-9925
7	-9926
6	-9927
W	-9928
z	-9929
X	-9930
F	-9931
!	-9932
%	-9933
'	-9934
Ở	-9935
Ý	-9936
;	-9937
Y	-9938
U	-9939
Ấ	-9940
ẵ	-9941
Ồ	-9942
j	-9943
/	-9944
Â	-9945
ỵ	-9946
Ả	-9947
Á	-9948
[	-9949
]	-9950
À	-9951
Z	-9952
$	-9953
Ừ	-9954
Ú	-9955
Ư	-9956
+	-9957
Í	-9958
#	-9959
–	-9960
&	-9961
Ẩ	-9962
Ờ	-9963
⁄	-9964
)	-9965
Ă	-9966
อ	-9967
Ủ	-9968
Ổ	-9969
Ứ	-9970
(	-9971
*	-9972
=	-9973
ö	-9974
ย	-9975
ร	-9976
่	-9977
Ế	-9978
Ọ	-9979
Ố	-9980
@	-9981
}	-9982
©	-9983
Ê	-9984
ç	-9985
ø	-9986
ü	-9987
Ắ	-9988
Ẻ	-9989
Ộ	-9990
Ớ	-9991
Ụ	-9992
Ữ	-9993
Ự	-9994
	-9995
